<pad>	0
<unk>	0
<s>	0
</s>	0
<ans>	0
</ans>	0
▁	-2.43585
▁کے	-3.23936
▁میں	-3.561
▁کی	-3.62391
▁،	-3.64996
؟	-3.98726
▁اور	-4.13717
▁سے	-4.20673
▁ہے	-4.31203
▁کو	-4.31533
▁کیا	-4.37789
▁کا	-4.38978
▁نے	-4.42559
▁پر	-4.4523
▁ایک	-4.80264
▁اس	-5.12476
▁کس	-5.15406
▁تھا	-5.1703
▁لئے	-5.23468
▁ہے۔	-5.2442
▁طور	-5.30459
▁ہیں	-5.41946
▁گیا	-5.44577
)	-5.45175
▁جو	-5.58603
وں	-5.59756
▁(	-5.5986
▁کرنے	-5.65437
▁ساتھ	-5.65664
▁کون	-5.72722
▁کہ	-5.8035
▁جس	-5.81342
▁جاتا	-5.84318
▁زیادہ	-5.8617
ی	-5.95157
▁سی	-6.06095
▁ہیں۔	-6.07881
▁سب	-6.07959
▁تک	-6.12594
▁تھا۔	-6.1476
▁بعد	-6.15983
س	-6.16519
▁یہ	-6.17642
▁استعمال	-6.18004
ز	-6.20855
▁تھی	-6.21351
▁یا	-6.30986
▁ان	-6.33343
▁بھی	-6.33361
▁نام	-6.38606
▁سال	-6.42378
▁سا	-6.43734
▁دیا	-6.48159
۔	-6.49189
▁نہیں	-6.5061
▁تھے	-6.51167
،	-6.55257
▁والے	-6.55413
▁کرتے	-6.59266
▁کرتا	-6.59665
▁ڈی	-6.59684
▁شامل	-6.59866
▁پہلے	-6.59947
▁کر	-6.60521
▁اپنے	-6.62741
▁وہ	-6.63664
ا	-6.63894
▁کم	-6.67805
▁شہر	-6.68809
▁ہوا	-6.69292
▁ذریعہ	-6.70276
▁گئی	-6.74223
ر	-6.76074
ن	-6.77084
▁عام	-6.77389
▁دی	-6.77473
▁بہت	-6.78555
▁کب	-6.79983
▁آف	-6.80488
▁دوران	-6.81678
▁ہونے	-6.82584
▁کیا۔	-6.83055
▁کہا	-6.85402
▁جب	-6.86485
▁بی	-6.86528
و	-6.89805
▁کتنے	-6.90988
ک	-6.91216
م	-6.92511
▁طرح	-6.92598
نگ	-6.92695
▁غیر	-6.93585
▁کچھ	-6.95012
▁شروع	-6.95324
▁دو	-6.96247
▁حاصل	-6.97059
▁اے	-6.97523
ل	-6.98767
▁صدی	-6.99034
▁ہوئے	-7.00421
▁جنگ	-7.00703
ڈ	-7.00937
▁پی	-7.02263
ہ	-7.0281
▁ایس	-7.04409
▁قسم	-7.04947
▁کام	-7.05521
▁اپنی	-7.06517
▁لیکن	-7.06728
▁وقت	-7.07918
▁جیسے	-7.08786
▁اہم	-7.10502
▁ہوتا	-7.10912
▁امریکی	-7.1139
▁طرف	-7.1172
یں	-7.12125
ت	-7.13177
ٹ	-7.14319
▁وجہ	-7.14643
▁کہاں	-7.14817
▁ہی	-7.15415
-	-7.17348
▁دور	-7.18131
:	-7.18413
٪	-7.1861
▁تیار	-7.18779
▁والی	-7.18854
▁آئی	-7.19135
▁و	-7.19499
ے	-7.20158
▁تھی۔	-7.21581
▁نیو	-7.22388
▁تقریبا	-7.22719
▁ویں	-7.23492
▁ای	-7.24072
▁تھے۔	-7.26582
▁تر	-7.27361
▁اسے	-7.28004
▁ہوئی	-7.28424
نا	-7.2929
▁آبادی	-7.31092
▁حکومت	-7.311
▁بن	-7.3193
▁حصہ	-7.32759
▁پیش	-7.33486
▁کرنا	-7.33661
▁پہلی	-7.34098
▁بڑے	-7.34675
▁بار	-7.35447
▁متحدہ	-7.35533
▁گئے	-7.37344
▁ایم	-7.39254
ون	-7.39399
▁تعمیر	-7.39533
s	-7.39994
▁بارے	-7.40064
پ	-7.40161
▁کرتی	-7.40798
▁جانا	-7.41105
▁ٹی	-7.41753
▁جاتی	-7.42236
▁مختلف	-7.42713
▁دہائی	-7.42814
یا	-7.4336
▁کتنی	-7.44062
▁تو	-7.44063
▁صرف	-7.44115
ری	-7.44242
▁-	-7.44296
▁بنیادی	-7.44553
▁جاری	-7.44774
▁امریکہ	-7.44809
▁ملک	-7.45415
▁کی۔	-7.45415
▁دنیا	-7.45592
▁ہوتی	-7.46277
ف	-7.4715
▁زبان	-7.47302
▁ہر	-7.47433
▁این	-7.4767
▁دیگر	-7.49276
ش	-7.49898
▁جن	-7.49932
▁دوسرے	-7.50775
▁واقع	-7.52104
▁قائم	-7.5233
▁آر	-7.5273
▁پیدا	-7.53127
▁تمام	-7.5417
▁کسی	-7.54561
▁بڑی	-7.55087
▁پہلا	-7.56569
▁گروپ	-7.56982
▁خلاف	-7.57492
▁وی	-7.59912
گ	-7.60059
▁ابتدائی	-7.60306
▁جسے	-7.60614
▁شمالی	-7.60627
▁اسکول	-7.60657
▁ملین	-7.608
▁مطابق	-7.61062
▁یونیورسٹی	-7.61363
▁اب	-7.61798
سی	-7.61851
▁لوگوں	-7.61878
▁درمیان	-7.61879
ب	-7.61983
▁کیے	-7.63052
د	-7.63239
▁ریاستہائے	-7.63743
▁تشکیل	-7.64365
▁ایف	-7.64391
ان	-7.64439
▁جبکہ	-7.64469
▁قانون	-7.64531
▁کردیا	-7.6486
لی	-7.65252
▁ہوتے	-7.65329
▁ایل	-7.65415
▁ریاست	-7.66299
▁ہو	-7.68333
ین	-7.68958
▁17	-7.70131
▁سلطنت	-7.70276
▁ترقی	-7.70467
▁شدہ	-7.70918
ات	-7.71404
▁یو	-7.71888
▁خاص	-7.72164
▁نظام	-7.72233
سٹ	-7.72641
▁جی	-7.72705
▁جان	-7.72731
▁برطانیہ	-7.72823
▁18	-7.73671
▁تین	-7.73956
▁عمل	-7.74042
چ	-7.74327
▁درجہ	-7.74488
▁لی	-7.74509
▁۔	-7.74592
ج	-7.74738
▁علاقے	-7.74939
▁بنیاد	-7.7509
نے	-7.75514
▁تاریخ	-7.75723
▁بڑا	-7.76335
▁مقامی	-7.76684
▁مابین	-7.76806
▁او	-7.76823
▁فیصد	-7.77336
تا	-7.77659
▁مغربی	-7.77813
▁دوسری	-7.77871
▁پیمانے	-7.78228
▁والا	-7.78684
▁دینے	-7.78942
▁کتنا	-7.7949
▁دونوں	-7.79976
▁ختم	-7.80646
▁برطانوی	-7.80746
▁پاس	-7.80934
▁بال	-7.80995
▁فراہم	-7.81562
▁تبدیل	-7.81727
▁اصل	-7.81951
▁ذریعے	-7.82312
1	-7.8269
▁مکمل	-7.82936
▁جنوبی	-7.8327
▁انہوں	-7.83949
نی	-7.84085
▁سرکاری	-7.84132
▁اکثر	-7.84186
▁علاقوں	-7.84577
▁علاوہ	-7.85986
▁مشرقی	-7.86079
▁دوبارہ	-7.86764
▁قابل	-7.86829
▁جانے	-7.87272
▁صدر	-7.87356
▁چرچ	-7.87483
را	-7.87558
▁کیونکہ	-7.88271
▁سمجھا	-7.88398
▁جدید	-7.88611
▁کار	-7.88914
▁فی	-7.89422
▁رہا	-7.89852
▁فرانسیسی	-7.89882
▁کمپنی	-7.9003
▁3	-7.90088
▁بندی	-7.9024
▁اعلی	-7.90474
▁تحت	-7.90474
▁نئے	-7.90543
▁حصے	-7.90745
▁جرمن	-7.90759
▁بین	-7.90837
▁مشہور	-7.91219
▁سکتا	-7.91289
▁چیز	-7.91578
▁جگہ	-7.91742
▁اجازت	-7.91902
▁فٹ	-7.9209
▁گیا۔	-7.92436
▁کن	-7.93139
▁2	-7.93443
▁لے	-7.94221
▁کردہ	-7.94275
▁موسم	-7.94377
▁جہاں	-7.94676
▁آخر	-7.95201
▁مین	-7.95314
▁گھر	-7.9579
▁زمین	-7.95882
▁کنٹرول	-7.96065
▁مدد	-7.96239
▁ممالک	-7.96885
▁چین	-7.96905
ق	-7.97264
▁آغاز	-7.9739
ٹی	-7.97464
▁یورپی	-7.9749
▁دن	-7.98074
e	-7.98898
▁سسٹم	-7.98994
▁کوئی	-7.99068
ور	-7.99342
▁ہم	-7.99777
▁خود	-7.998
تھ	-7.99815
▁سٹی	-8.00385
4	-8.00418
"	-8.00958
▁مثال	-8.00994
▁تقسیم	-8.01299
▁خیال	-8.01303
رو	-8.01336
▁لیگ	-8.01613
ٹر	-8.01729
▁کوشش	-8.01837
▁سطح	-8.02145
▁نتیجے	-8.02282
تی	-8.02567
ائی	-8.02654
▁ریکارڈ	-8.02687
▁15	-8.02812
▁اعلان	-8.03274
▁قدیم	-8.04345
▁تعلیم	-8.04523
▁فلم	-8.04794
▁میل	-8.04834
▁16	-8.04863
▁سیاسی	-8.05312
▁ڈالر	-8.05636
▁یونین	-8.05769
▁اصطلاح	-8.05781
▁فوج	-8.05941
▁یونانی	-8.06001
▁عظیم	-8.06061
▁بنایا	-8.06124
i	-8.06677
▁یارک	-8.07183
▁بیان	-8.07196
▁ضرورت	-8.07266
▁کبھی	-8.07421
▁لوگ	-8.07813
▁مسیح	-8.07846
▁انگریزی	-8.08074
▁حمایت	-8.0847
▁فرانس	-8.09087
▁خاندان	-8.09234
▁سینٹ	-8.09365
▁10	-8.09452
▁موسیقی	-8.0996
▁منتقل	-8.10093
▁فوجی	-8.10142
▁"	-8.10309
▁اثر	-8.10715
▁قریب	-8.10719
▁لیا	-8.10824
▁تعداد	-8.1109
▁بنانے	-8.11129
▁رنگ	-8.11308
▁اینڈ	-8.11569
▁کل	-8.11698
▁اندر	-8.11721
▁لندن	-8.11756
▁وسیع	-8.11756
▁سیزن	-8.11884
▁دیا۔	-8.11937
ٹا	-8.11956
▁کئی	-8.1218
▁20	-8.1266
▁نئی	-8.12685
▁تاہم	-8.13102
▁معاہدے	-8.13271
وا	-8.13582
▁حیثیت	-8.1361
▁ڈیزائن	-8.13781
▁جا	-8.13834
▁موجود	-8.14281
▁وسطی	-8.14329
▁شکل	-8.14541
▁کردار	-8.14566
▁افراد	-8.14636
▁فروخت	-8.1524
▁مقابلے	-8.1524
▁جاسکتا	-8.15413
o	-8.15627
▁زندگی	-8.1576
وس	-8.16331
▁چار	-8.16688
▁رکھا	-8.16763
کس	-8.17471
▁قبل	-8.17869
▁جنوب	-8.18169
▁ہوائی	-8.18194
▁کمی	-8.18263
اس	-8.19006
▁موت	-8.1904
a	-8.19402
▁مبنی	-8.1957
▁قومی	-8.19689
▁نسل	-8.19748
2	-8.20062
▁الاقوامی	-8.20203
ع	-8.20533
▁1	-8.20779
'	-8.20882
▁ویسٹ	-8.20916
ٹو	-8.21088
▁طاقت	-8.21253
▁گا	-8.21319
▁/	-8.22395
▁یورپ	-8.22447
y	-8.22721
ول	-8.22805
▁جاتے	-8.23562
رز	-8.23786
▁مرکز	-8.23859
▁رہے	-8.23862
سن	-8.23889
▁لائن	-8.24024
▁لیے	-8.24037
▁متاثر	-8.24055
▁الگ	-8.24206
▁رومن	-8.24297
▁لینڈ	-8.24546
ال	-8.24881
نٹ	-8.24937
▁میٹر	-8.25139
▁پارٹی	-8.25476
▁عوامی	-8.25974
▁آخری	-8.26059
▁بادشاہ	-8.26149
.	-8.26508
▁بات	-8.26699
ار	-8.26745
n	-8.26901
وی	-8.26913
▁نظر	-8.27055
؛	-8.27225
▁مشتمل	-8.28242
▁پانی	-8.28545
▁نو	-8.28552
▁پارک	-8.2861
▁چینی	-8.28734
بی	-8.29049
▁ہوا۔	-8.29173
کو	-8.294
▁توانائی	-8.2943
▁مل	-8.29603
لو	-8.29637
▁کھیل	-8.30124
▁انہیں	-8.30434
▁شائع	-8.30734
ٹن	-8.30791
▁12	-8.30879
▁حملہ	-8.31167
▁ایچ	-8.31237
تے	-8.31364
▁شمال	-8.31395
▁انسانی	-8.31736
▁جنرل	-8.31759
▁تھیں	-8.31955
▁5	-8.32542
▁نیشنل	-8.32568
▁ٹیلی	-8.32904
▁بھر	-8.32963
یو	-8.32982
▁وضاحت	-8.33291
▁مطلب	-8.33498
▁ظاہر	-8.33557
▁پرجاتیوں	-8.33653
▁ال	-8.34055
▁اضافہ	-8.34123
▁اپنا	-8.34179
▁مشرق	-8.346
▁جائے	-8.34925
t	-8.35005
▁عمر	-8.35806
▁جمہوریہ	-8.35925
▁مقصد	-8.36234
▁موجودہ	-8.36284
▁2010	-8.3656
▁حالانکہ	-8.36672
▁کالج	-8.37051
کی	-8.37239
▁ہاؤس	-8.3733
▁مرکزی	-8.3736
نس	-8.37453
▁اسٹیشن	-8.37697
▁برقرار	-8.37738
▁فن	-8.37825
▁حوالہ	-8.37846
0	-8.37868
ڈی	-8.37955
▁کلومیٹر	-8.37956
▁لا	-8.38024
l	-8.38266
▁مذہبی	-8.38479
▁روایتی	-8.3882
▁حکمرانی	-8.38918
▁سر	-8.38998
▁روم	-8.39037
▁پانچ	-8.39042
▁قبضہ	-8.39046
▁انگلینڈ	-8.39377
▁جزیرے	-8.39596
بر	-8.40097
▁سوویت	-8.40228
▁قیادت	-8.40371
u	-8.40372
▁م	-8.40448
c	-8.40598
▁14	-8.41515
▁6	-8.41533
3	-8.41706
▁4	-8.4196
پی	-8.41969
یت	-8.42152
▁13	-8.42711
▁کونسل	-8.42739
▁بے	-8.42862
▁11	-8.42984
▁مارچ	-8.43031
▁آزاد	-8.43211
▁واحد	-8.43304
▁اگر	-8.43333
▁مئی	-8.43444
ڈو	-8.43524
کا	-8.43525
▁بجائے	-8.43534
▁بل	-8.43585
من	-8.43635
5	-8.44083
▁پیرس	-8.44252
▁دیتا	-8.44449
لا	-8.45253
ما	-8.45369
▁مطالعہ	-8.45387
▁پھر	-8.45387
▁واپس	-8.45603
▁باہر	-8.45623
▁رکھنے	-8.45627
▁شکار	-8.45823
▁آزادی	-8.45929
▁طلباء	-8.45973
▁خدمات	-8.46326
▁مار	-8.46504
▁ٹیم	-8.46621
ح	-8.46772
00	-8.46791
▁19	-8.46799
▁شو	-8.46866
می	-8.47045
▁منتخب	-8.47155
▁دار	-8.47244
▁ستمبر	-8.47277
▁ہائی	-8.47505
▁وکٹوریہ	-8.47634
▁کتاب	-8.479
یشن	-8.4797
▁رکھی	-8.48107
▁سکتے	-8.48113
▁ادا	-8.48136
▁خواتین	-8.48594
▁8	-8.48696
▁سالوں	-8.48826
ٹس	-8.49025
▁ہسپانوی	-8.49035
▁چھ	-8.4961
▁ہندوستان	-8.49722
▁جون	-8.49996
▁اوائل	-8.50186
▁2008	-8.50306
▁روسی	-8.50371
▁C	-8.50426
▁2011	-8.50544
▁تاریخی	-8.50602
▁شہنشاہ	-8.50667
▁متعدد	-8.50667
▁اگرچہ	-8.51602
ڈر	-8.51757
▁ملکہ	-8.51785
▁کیسے	-8.51802
▁بدھ	-8.52289
7	-8.52383
▁میوزک	-8.52407
▁وزیر	-8.52785
▁حد	-8.52859
▁مغرب	-8.52906
▁2007	-8.53168
▁رہی	-8.53194
▁آپ	-8.53635
▁متعارف	-8.53669
▁دریافت	-8.53924
▁ری	-8.5395
▁نقصان	-8.54646
▁نہ	-8.54718
▁قانونی	-8.54955
▁دوسرا	-8.55076
▁جنوری	-8.55107
▁جمع	-8.55213
▁دیتے	-8.55223
▁میک	-8.55473
▁نسلی	-8.55548
▁لفظ	-8.55728
▁لکھا	-8.55767
▁شہری	-8.55877
▁سو	-8.5591
اں	-8.55965
▁پروگرام	-8.56039
▁افریقی	-8.56111
▁نمبر	-8.56113
▁2013	-8.5638
▁7	-8.564
6	-8.56429
A	-8.56758
▁مقام	-8.56857
▁بغیر	-8.56895
▁تاکہ	-8.57026
▁انداز	-8.57071
▁بند	-8.5715
زم	-8.57192
▁اسی	-8.57392
▁2009	-8.57425
▁وفاقی	-8.57685
کر	-8.57735
▁نقطہ	-8.57817
▁قرار	-8.58215
▁ذمہ	-8.58215
▁کلب	-8.58377
▁مواد	-8.58487
▁ایئر	-8.58518
▁بیل	-8.5862
ئی	-8.58754
▁جرمنی	-8.58912
▁روشنی	-8.58943
▁تجویز	-8.59016
▁بولی	-8.59174
▁شکست	-8.59284
▁اوسط	-8.59418
▁علاقہ	-8.59553
▁خصوصیات	-8.59723
▁شوپن	-8.59823
▁طویل	-8.59823
▁سینٹر	-8.59936
▁نمائندگی	-8.60093
▁دے	-8.60517
▁ثقافت	-8.60541
▁حصوں	-8.60909
▁لڑائی	-8.60917
▁تجارتی	-8.60953
▁چھوڑ	-8.61005
▁مقابلہ	-8.61182
▁تعلقات	-8.61219
▁چھوٹے	-8.61456
▁طریقہ	-8.61594
▁کیتھولک	-8.61731
▁شرح	-8.6187
▁دارالحکومت	-8.62145
▁گی	-8.6223
▁کینیڈا	-8.62284
▁آج	-8.62449
▁2014	-8.62571
▁کیوں	-8.62585
▁شناخت	-8.627
▁مر	-8.62723
▁اختیار	-8.62794
▁مذہب	-8.63143
m	-8.63268
▁ورک	-8.63421
▁جہاز	-8.63873
جی	-8.6389
▁اپریل	-8.63962
▁مقبول	-8.64359
g	-8.64507
▁اکتوبر	-8.64665
▁پایا	-8.64813
گا	-8.65295
▁انتخاب	-8.65364
▁بچوں	-8.65401
▁تنظیم	-8.65429
▁دیکھا	-8.65715
▁معاشی	-8.65761
▁منسلک	-8.65805
p	-8.66081
▁خطے	-8.66122
▁ریاستوں	-8.66221
▁لکڑی	-8.6638
▁جیسا	-8.66417
▁کاؤنٹی	-8.6649
▁2012	-8.66679
I	-8.66824
▁سفر	-8.66832
▁رہتے	-8.67255
▁قدرتی	-8.67256
▁اختتام	-8.67395
▁بو	-8.67399
▁مشترکہ	-8.67401
یوں	-8.67428
▁نظریہ	-8.67557
▁اگست	-8.68126
پا	-8.68131
▁ہیون	-8.68135
▁اینٹی	-8.68186
▁جولائی	-8.68273
▁اسٹریٹ	-8.68275
خ	-8.68478
▁نمایاں	-8.68569
▁دسمبر	-8.68864
▁شہروں	-8.69042
▁مزید	-8.69455
▁فتح	-8.69455
▁حملے	-8.69489
▁گئی۔	-8.69612
مین	-8.69752
▁خدا	-8.69757
▁فری	-8.69914
▁آئین	-8.69917
▁متعلق	-8.70564
رس	-8.70599
سل	-8.70918
▁نیٹ	-8.71174
▁تحریک	-8.71497
▁بورڈ	-8.71504
▁ایکٹ	-8.7153
▁کردیا۔	-8.71688
▁توجہ	-8.71711
گو	-8.7184
▁منعقد	-8.71928
▁انجام	-8.72015
▁ذکر	-8.72016
▁مضبوط	-8.72068
کن	-8.72081
▁افواج	-8.72168
▁مالی	-8.72276
فی	-8.72364
▁افریقہ	-8.72474
▁ورلڈ	-8.72478
▁خدمت	-8.72627
▁مارکیٹ	-8.72695
▁روس	-8.7271
دی	-8.7272
▁تصور	-8.72883
▁دی۔	-8.72922
,	-8.72967
▁رکھتا	-8.73252
▁فیصلہ	-8.73398
▁کامیابی	-8.73443
▁آرٹ	-8.73501
▁سان	-8.7352
▁پال	-8.73673
▁جین	-8.73944
▁معیار	-8.74033
▁ریاستی	-8.74133
▁مجموعی	-8.7422
▁آیا	-8.74224
▁بغاوت	-8.7433
▁S	-8.74498
h	-8.74528
یم	-8.74528
▁معیاری	-8.74584
8	-8.74777
▁شادی	-8.74801
▁مت	-8.74909
▁شخص	-8.74934
▁2006	-8.75278
▁ناصر	-8.75429
▁والوں	-8.75444
al	-8.75646
▁سائنس	-8.75681
▁کلاسیکی	-8.75745
▁عالمی	-8.7576
▁یونان	-8.75794
▁ویژن	-8.75904
]	-8.76037
▁سفید	-8.76063
▁عرصے	-8.76063
▁پیداوار	-8.76236
▁2015	-8.7654
▁سروس	-8.76574
▁سبب	-8.76608
▁کرکے	-8.76732
▁'	-8.76783
▁جارج	-8.76969
▁پتہ	-8.7702
▁گر	-8.77285
▁داخل	-8.77342
گر	-8.77342
▁سالانہ	-8.77415
▁راست	-8.77623
▁اپ	-8.77642
▁محدود	-8.77664
▁البم	-8.77801
▁توسیع	-8.77826
▁میکسیکو	-8.77826
▁اتحاد	-8.77879
▁بنا	-8.7799
▁دفاع	-8.78058
▁لو	-8.78153
▁مدت	-8.78384
▁براہ	-8.7864
▁ممکنہ	-8.78899
▁یہودی	-8.79009
▁تبدیلی	-8.79245
k	-8.79358
▁تعلق	-8.79411
▁انقلاب	-8.79546
▁کیڑے	-8.79622
/	-8.79765
▁ٹو	-8.79773
▁ماڈل	-8.79918
▁پسند	-8.79985
▁آس	-8.80119
▁حرارت	-8.80613
▁فوجیوں	-8.80727
▁سیاہ	-8.80782
▁مختصر	-8.80795
کل	-8.80894
▁بہتر	-8.8091
▁نومبر	-8.80952
▁نپولین	-8.8128
▁زندہ	-8.8128
نز	-8.81559
▁جاپان	-8.81685
f	-8.82088
ص	-8.82264
▁ڈچ	-8.82435
▁خصوصی	-8.82504
▁محفوظ	-8.82628
▁دستخط	-8.82798
▁ہجرت	-8.82798
▁سائٹ	-8.82928
▁شاہی	-8.8319
▁A	-8.83215
▁معیشت	-8.83651
▁ویڈیو	-8.83793
▁تعریف	-8.83822
▁بڑھ	-8.83859
▁وے	-8.84078
▁آہستہ	-8.84166
▁پیچھے	-8.84166
▁قرون	-8.8434
▁پولیس	-8.84435
▁مصر	-8.84468
▁ترین	-8.8457
▁اوپر	-8.84574
▁علم	-8.84583
▁جانوروں	-8.84704
▁تیزی	-8.84852
▁راک	-8.84906
▁پوپ	-8.84939
▁قیمت	-8.84989
▁انتخابات	-8.85085
▁منصوبہ	-8.85205
▁کرے	-8.85231
▁دیر	-8.85429
▁مستقل	-8.85554
▁ثقافتی	-8.85693
▁حقوق	-8.85729
▁ریڈیو	-8.85752
▁سمندری	-8.8576
▁وسط	-8.86004
▁تسلیم	-8.86079
▁تھیٹر	-8.86155
▁نقل	-8.86255
▁آلات	-8.86268
▁رپورٹ	-8.86579
▁مربع	-8.86607
▁گھروں	-8.86632
▁اسکولوں	-8.86837
▁گرد	-8.86888
▁بیس	-8.87008
▁جزیرہ	-8.87138
بو	-8.87318
مو	-8.87391
▁صلاحیت	-8.87484
▁رکھتے	-8.875
ڑ	-8.87689
▁2000	-8.87727
رین	-8.87747
▁سامنا	-8.87852
اب	-8.8796
▁میوزیم	-8.8803
▁پودوں	-8.8803
▁فورس	-8.88036
▁لگایا	-8.88054
▁2005	-8.88225
▁جزائر	-8.88388
▁نتیجہ	-8.88388
▁بینڈ	-8.88402
▁چاہئے	-8.88419
▁دستیاب	-8.88495
▁نجی	-8.88772
▁تھیں۔	-8.89013
z	-8.8909
in	-8.89145
▁(19	-8.89157
d	-8.89261
▁25	-8.8934
▁کاری	-8.89638
▁اوکلاہوما	-8.89837
▁بالآخر	-8.89837
▁معاشرتی	-8.89837
▁سابق	-8.90115
پر	-8.90192
▁اعظم	-8.90202
▁پورے	-8.90204
▁سکتی	-8.9021
▁نافذ	-8.90385
▁تباہ	-8.90477
▁کامیاب	-8.90516
▁معاہدہ	-8.90568
▁انتظام	-8.90672
▁لاطینی	-8.90821
▁آمدنی	-8.90951
▁عرب	-8.91071
▁بلین	-8.91207
چی	-8.91222
S	-8.91415
▁خصوصیت	-8.91578
▁نیا	-8.91619
▁گا۔	-8.91624
▁لینے	-8.9167
سا	-8.91789
▁ساحل	-8.91796
▁قبول	-8.91841
▁جسم	-8.91963
▁بیک	-8.91979
▁ڈیل	-8.91997
▁کھیلوں	-8.92169
▁سابقہ	-8.92455
سٹر	-8.92563
یل	-8.92598
▁ورژن	-8.92609
▁جنہوں	-8.92611
▁فروری	-8.92615
▁ہونا	-8.92658
▁گئیں	-8.9269
انا	-8.92909
le	-8.92955
▁ہیڈ	-8.93098
▁رہنما	-8.9315
▁صحت	-8.93173
▁منظم	-8.93173
▁قوم	-8.93316
▁دریا	-8.93353
▁بہترین	-8.93572
▁کانگریس	-8.93742
▁فام	-8.93762
▁زبانوں	-8.93803
▁تخلیق	-8.93866
▁اول	-8.93943
▁مقامات	-8.93994
▁کورٹ	-8.94171
▁از	-8.94209
9	-8.94325
اؤ	-8.94396
▁تجارت	-8.9444
▁کیں	-8.94623
▁ڈیم	-8.94633
▁جے	-8.94905
▁کافی	-8.94957
▁I	-8.94999
▁30	-8.95179
جو	-8.95365
▁یہاں	-8.95767
ھ	-8.95836
▁می	-8.95841
▁مخصوص	-8.95848
▁میڈیا	-8.96263
▁مرکوز	-8.9643
▁عملی	-8.96493
▁ٹیوٹ	-8.9676
▁باوجود	-8.9682
▁یافتہ	-8.97016
با	-8.97192
▁اقوام	-8.97212
▁جنسی	-8.97349
رک	-8.97415
▁سرخ	-8.9744
▁اطالوی	-8.97467
وم	-8.97516
وک	-8.97591
جس	-8.97625
re	-8.9766
▁ہال	-8.97798
▁°	-8.97855
▁ملکی	-8.97867
▁ضروری	-8.97956
▁بوسٹن	-8.98013
▁آئیڈل	-8.98053
▁اسٹیٹ	-8.98142
▁مسترد	-8.98198
▁جیت	-8.98205
▁گھریلو	-8.98208
▁اندرونی	-8.98212
▁پالیسی	-8.98237
▁ڈیٹا	-8.98357
▁ریلوے	-8.98397
▁جواب	-8.98451
▁رہنے	-8.98619
شن	-8.98638
▁واضح	-8.98795
▁چلتا	-8.98803
▁جنگی	-8.99024
en	-8.99058
r	-8.99123
▁دورہ	-8.99166
▁کمپیوٹر	-8.99394
مر	-8.9946
▁آب	-8.99541
وٹ	-8.99547
▁پرانے	-8.99552
▁گئے۔	-8.99748
▁امریکن	-8.99797
▁طریقوں	-8.99797
سک	-8.99936
▁زیر	-9.00135
▁جاپانی	-9.00137
▁نیچے	-9.00271
▁9	-9.00289
▁وائٹ	-9.00453
▁اکثریت	-9.00475
▁باقی	-9.00561
▁ووٹ	-9.00617
اک	-9.00696
us	-9.00815
▁کھانے	-9.00817
ٹین	-9.0097
▁سامنے	-9.01013
▁فیلڈ	-9.0106
یس	-9.011
▁فعال	-9.01217
▁وابستہ	-9.01217
es	-9.01423
er	-9.01465
▁آباد	-9.01546
ar	-9.01635
▁ذیلی	-9.01663
C	-9.01739
▁کوڈ	-9.01822
سو	-9.01907
▁انسٹی	-9.0191
▁اداروں	-9.02047
▁آواز	-9.02175
▁آن	-9.0224
b	-9.02254
▁عدالت	-9.0237
or	-9.02571
▁تنازعہ	-9.02657
▁گورنر	-9.0266
شی	-9.02794
▁ایشن	-9.02857
▁فروغ	-9.02865
▁پوسٹ	-9.03089
▁مہم	-9.03147
▁رائل	-9.03148
▁مقرر	-9.03193
▁قوانین	-9.03281
▁انتہائی	-9.03282
▁1990	-9.03291
▁سیریز	-9.03331
▁الفاظ	-9.0349
▁ایسوسی	-9.03491
▁ملی	-9.03561
50	-9.03583
▁آسٹریلیا	-9.0368
▁عائد	-9.03699
▁24	-9.03835
▁برعکس	-9.03908
E	-9.04025
L	-9.04075
▁مجبور	-9.04119
▁شماری	-9.04124
ائ	-9.0423
▁عیسائی	-9.04304
▁ریڈ	-9.04309
▁لحاظ	-9.04329
▁حل	-9.0434
▁ایسٹونیا	-9.04963
▁قتل	-9.04963
▁ہندوستانی	-9.05114
on	-9.05136
▁اڈے	-9.05179
بل	-9.05233
پو	-9.05369
▁ٹیکس	-9.05373
▁فائدہ	-9.05602
نڈ	-9.05692
▁بجلی	-9.05815
▁حکم	-9.05948
▁ہوگئی	-9.0609
ط	-9.06581
▁عمارت	-9.0666
▁رفتار	-9.06676
▁منظور	-9.06854
▁1970	-9.06901
▁ٹاپ	-9.06938
برگ	-9.07097
▁بولنے	-9.07118
▁جنس	-9.07128
▁آنے	-9.07223
▁فرق	-9.07251
▁پوڈ	-9.07318
▁سمیت	-9.07338
▁ولیم	-9.07369
نو	-9.07444
▁حروف	-9.07541
▁تنقید	-9.07733
▁پل	-9.07774
انی	-9.07798
▁ویئر	-9.0786
ڈن	-9.08397
▁??	-9.08416
▁سیل	-9.08456
▁حق	-9.08665
▁ایسٹ	-9.08699
▁سمندر	-9.0889
▁آرڈر	-9.08954
la	-9.09061
▁ہیوسٹن	-9.09078
▁2004	-9.09093
▁ارد	-9.09352
▁نشاندہی	-9.09519
▁واشنگٹن	-9.09519
▁مارشل	-9.09524
▁نصف	-9.09742
▁صارفین	-9.09757
▁اشرافیہ	-9.09964
▁پارلیمنٹ	-9.09964
▁پائے	-9.09968
▁کھو	-9.10296
▁ترجمہ	-9.10411
▁میدان	-9.10493
▁کرایا	-9.10559
▁ٹائمز	-9.11031
▁ام	-9.11091
▁پو	-9.11092
▁ملکیت	-9.11187
▁ناکام	-9.11189
▁کیرولائنا	-9.11537
▁تلاش	-9.11537
ڈا	-9.11545
▁عثمانی	-9.11569
▁ہوئی۔	-9.11788
▁سیٹ	-9.1183
▁بندرگاہ	-9.11852
▁ہاور	-9.11908
▁حیاتیات	-9.11965
▁مسائل	-9.11994
▁سپریم	-9.12007
▁وان	-9.12049
▁مردم	-9.1207
▁پھیل	-9.12135
▁پابندی	-9.1215
▁کیری	-9.12359
▁پیشہ	-9.12512
▁جلد	-9.12546
▁21	-9.12567
یہ	-9.12592
▁کریں	-9.12615
▁M	-9.12665
an	-9.12833
▁گرما	-9.12834
▁درخواست	-9.12906
▁پوزیشن	-9.12906
▁سائز	-9.12978
گن	-9.12981
▁ممبروں	-9.12982
▁ساؤتھمپٹن	-9.13136
▁دہلی	-9.13161
▁کمانڈ	-9.13188
▁قریبی	-9.13479
▁F	-9.13481
▁لانچ	-9.13597
▁ایونیو	-9.13603
O	-9.1377
▁100	-9.13792
▁اینٹینا	-9.13944
▁ترک	-9.14008
▁فارم	-9.14218
▁براعظم	-9.14293
▁طریقے	-9.14293
▁شمسی	-9.14298
▁دیئے	-9.14353
w	-9.14353
▁پیدائش	-9.14646
▁مصنوعات	-9.14762
▁ڈبلیو	-9.1477
▁مردوں	-9.14831
▁متبادل	-9.14994
▁ایپل	-9.15033
▁بیئر	-9.15084
▁رہائش	-9.15193
▁رسوخ	-9.15229
▁مقیم	-9.15229
▁ڈویژن	-9.15229
▁آئزن	-9.1523
▁گانے	-9.15343
▁علاقائی	-9.15464
گی	-9.15655
ra	-9.15785
▁ہوگئے	-9.15787
▁سپر	-9.15889
▁بیونسے	-9.15968
▁واقعات	-9.16164
▁مشعل	-9.16173
▁ڈگری	-9.16411
زی	-9.16485
▁تحقیق	-9.16504
▁گرینڈ	-9.16598
▁اٹلی	-9.16653
▁جیمز	-9.16673
▁انکار	-9.16776
▁باضابطہ	-9.16887
▁نمائش	-9.16887
▁اسرائیل	-9.16965
▁بحری	-9.17184
وری	-9.17281
▁سرمایہ	-9.17375
▁معلومات	-9.17397
▁وار	-9.17484
▁مقدار	-9.17607
ch	-9.17705
▁ہوئے۔	-9.17711
▁ڈسک	-9.17892
▁کپ	-9.17899
▁آ	-9.17963
▁آئرلینڈ	-9.18089
▁اسپین	-9.18174
▁نارتھ	-9.18332
▁چھوٹی	-9.18332
▁سازی	-9.18405
▁صنعت	-9.18483
غ	-9.185
▁سن	-9.18506
▁کارکردگی	-9.18574
▁سخت	-9.18808
▁بیکٹیریا	-9.18818
▁گرجا	-9.18832
▁عیسوی	-9.19061
▁آسٹریا	-9.19062
▁جسمانی	-9.1912
▁والد	-9.19207
▁نوٹ	-9.19249
▁اضافی	-9.19306
▁لائبریری	-9.19306
جن	-9.19376
▁ترتیب	-9.19552
▁ایجاد	-9.19554
▁انٹرنیٹ	-9.19555
▁یہودیوں	-9.1961
▁کوریا	-9.19702
▁دماغ	-9.19797
رن	-9.20037
▁ماہر	-9.20078
ٹری	-9.20083
▁بنائے	-9.20092
▁ییل	-9.20094
▁صوتی	-9.20182
▁زلزلے	-9.2029
▁کور	-9.20379
▁تعلیمی	-9.206
▁روشن	-9.20686
▁حقیقت	-9.20786
یئر	-9.20799
▁اسلامی	-9.2094
ٹیک	-9.20964
▁چیف	-9.21186
▁P	-9.21271
▁حوصلہ	-9.21284
▁بارش	-9.21387
▁عروج	-9.21534
▁کیے۔	-9.21547
▁آگے	-9.21598
▁ہوسکتا	-9.21784
▁سائنسی	-9.21935
▁G	-9.21984
▁عنوان	-9.21991
▁سرحد	-9.22026
▁مسلسل	-9.22036
▁میڈونا	-9.22036
▁ڈھانچے	-9.22036
▁الیکٹرک	-9.22067
▁کمیونٹی	-9.22086
▁شمار	-9.22278
▁قیام	-9.22288
▁ووڈ	-9.22317
▁وطن	-9.22793
▁گلی	-9.22957
▁لہذا	-9.23047
▁آئے	-9.23178
▁الزام	-9.23257
▁کرسکتے	-9.23302
▁زور	-9.23325
▁تبت	-9.23622
▁پولی	-9.23853
▁روک	-9.24115
▁گرم	-9.24248
▁میزبانی	-9.24446
فر	-9.24477
▁H	-9.2453
▁شراکت	-9.24584
▁اسٹیڈیم	-9.24585
▁40	-9.24592
▁فار	-9.24655
B	-9.247
▁ویل	-9.24759
20	-9.24811
▁مو	-9.24895
▁رات	-9.24934
▁گروہوں	-9.24984
▁ٹاؤن	-9.25101
▁ڈو	-9.25142
▁بڑھتی	-9.25151
▁کیمپس	-9.25206
وب	-9.25258
N	-9.25353
▁گیم	-9.25389
▁قذافی	-9.25621
▁منظوری	-9.25666
وز	-9.25843
▁سیٹلائٹ	-9.25882
▁ڈیجیٹل	-9.25884
▁پرتگالی	-9.26095
▁ایکس	-9.26131
▁پرندوں	-9.26144
▁آرتھوڈوکس	-9.26407
▁پائی	-9.2642
اد	-9.26426
▁پہنچ	-9.26469
▁بیرونی	-9.26502
▁سول	-9.26764
▁دیتی	-9.2681
▁پڑا	-9.26828
▁خانہ	-9.26974
▁تیز	-9.27013
▁بیماری	-9.27042
▁ایسا	-9.27178
▁ڈیٹرائٹ	-9.27198
▁سات	-9.27217
▁1980	-9.27217
▁پرتگال	-9.27252
ارڈ	-9.2734
▁گرین	-9.27454
ائڈ	-9.27509
نک	-9.27524
▁روڈ	-9.27535
▁اثرات	-9.27606
▁گے	-9.27613
▁کاموں	-9.27681
▁R	-9.2772
▁استدلال	-9.27729
▁تیسری	-9.27739
0،000	-9.2792
▁پار	-9.27953
▁ٹائم	-9.28
▁آرمینیائی	-9.2801
▁پورٹ	-9.28133
.5	-9.28154
ڈین	-9.28255
▁ایگزیکٹو	-9.28263
▁اوقات	-9.28532
▁نانجنگ	-9.28532
▁روایت	-9.28547
▁منتقلی	-9.28552
▁گیس	-9.28711
▁کارروائی	-9.28973
ri	-9.28994
▁کلاس	-9.29131
▁گو	-9.2933
▁E	-9.29416
جیسے	-9.29554
▁سوئٹزرلینڈ	-9.29611
▁رسائی	-9.29616
▁چارلس	-9.30151
▁تجربہ	-9.30155
▁آٹھ	-9.3016
▁فون	-9.30216
▁ریکارڈنگ	-9.30232
یک	-9.3053
M	-9.30631
▁نامزد	-9.30692
▁انحصار	-9.30702
▁طالب	-9.30702
▁لگانے	-9.30731
ام	-9.30804
40	-9.30865
▁زون	-9.30937
▁بچے	-9.31042
P	-9.31043
▁ممبر	-9.31126
▁کتے	-9.31277
▁پلے	-9.31355
▁تیل	-9.31374
▁دس	-9.31481
▁ضلع	-9.31529
▁کرسکتا	-9.31529
▁عنصر	-9.31529
▁اگلے	-9.31531
▁البرٹ	-9.31547
▁بحران	-9.31566
▁بڑھا	-9.31676
▁ہار	-9.31796
▁اقسام	-9.31806
▁فلسفہ	-9.31806
▁1960	-9.3182
▁K	-9.32281
▁علاج	-9.32362
▁معاملات	-9.32362
▁منگ	-9.32384
▁مرکب	-9.32597
▁بشمول	-9.32601
▁فریڈرک	-9.32642
▁نما	-9.32664
▁داری	-9.32674
R	-9.32744
▁گروپوں	-9.32799
ڈل	-9.32874
▁تانبے	-9.32922
▁حالیہ	-9.3293
▁مرد	-9.33005
▁نشان	-9.33071
▁بری	-9.33092
▁کھانا	-9.33221
▁ایران	-9.34087
▁ماحولیاتی	-9.34103
▁آگ	-9.34196
▁اطلاع	-9.34334
▁مواصلات	-9.34334
-1	-9.34583
▁افزائی	-9.34619
▁سماجی	-9.34619
▁50	-9.34996
▁یونٹ	-9.35106
▁سالہ	-9.35184
▁اظہار	-9.35191
▁دباؤ	-9.35192
▁میلبورن	-9.35196
▁2003	-9.35206
▁بیونسی	-9.35325
▁انٹر	-9.35491
▁ذاتی	-9.35512
▁رہائشی	-9.35709
▁ہوسکتی	-9.35767
▁اصلاحات	-9.3582
ونگ	-9.35864
در	-9.35888
x	-9.36056
▁اتفاق	-9.36056
▁ٹور	-9.36058
▁سافٹ	-9.36134
▁ملتی	-9.36154
لین	-9.36236
▁صومالی	-9.36259
چر	-9.36321
▁حالت	-9.36326
▁قواعد	-9.36346
▁دعویٰ	-9.36347
▁شپ	-9.36447
▁اجزاء	-9.36636
▁اعداد	-9.36636
▁صنف	-9.36637
▁رو	-9.36645
▁بننے	-9.36664
▁قرض	-9.36779
ro	-9.36851
▁نائیجیریا	-9.36928
▁ہدایت	-9.36928
▁پاور	-9.3694
▁پہنچا	-9.37057
وف	-9.3718
▁رقم	-9.3722
▁بنائی	-9.37283
▁فل	-9.37322
80	-9.37349
اف	-9.37445
▁سربراہ	-9.37507
▁آؤٹ	-9.37514
▁محل	-9.37514
▁الحال	-9.37808
▁اسمبلی	-9.37808
▁فیڈرل	-9.37812
▁نظریات	-9.3785
D	-9.38051
▁چی	-9.38087
▁موجودگی	-9.3814
▁مال	-9.3825
▁ہان	-9.38346
▁عدم	-9.38399
فورڈ	-9.38416
▁کاغذ	-9.38651
▁توقع	-9.38695
▁1950	-9.38725
▁ملا	-9.38768
▁مشین	-9.38772
▁فراہمی	-9.39019
شین	-9.39086
▁پسندی	-9.39146
▁آرمی	-9.39186
▁سامان	-9.39255
▁پلائیماؤتھ	-9.39291
30	-9.3931
شا	-9.39527
▁ڈال	-9.3955
li	-9.39567
▁ٹیسٹ	-9.39606
▁پرست	-9.39688
▁میچ	-9.39952
▁2001	-9.39956
▁زی	-9.40041
ویل	-9.40119
▁ہوم	-9.40253
▁غلط	-9.40325
.6	-9.40336
▁حکمران	-9.40485
▁اچھی	-9.40495
▁جینیاتی	-9.40539
▁23	-9.40571
▁گئیں۔	-9.40736
▁اپنایا	-9.40813
▁ورزی	-9.40815
▁ہلاک	-9.40815
▁پیٹنٹ	-9.40821
▁T	-9.41068
▁شدید	-9.41101
▁رکاوٹ	-9.41102
▁ترمیم	-9.41102
▁مظاہرہ	-9.41113
▁بٹ	-9.41236
پل	-9.41278
▁ایڈ	-9.41312
▁ہوں	-9.4132
▁گانا	-9.41346
▁پروٹسٹنٹ	-9.41387
▁فارمیٹ	-9.4152
جا	-9.41567
▁کمیٹی	-9.41576
▁کراس	-9.41577
▁انسانوں	-9.41692
▁ماحول	-9.41712
▁حقیقی	-9.41712
▁یورینیم	-9.41712
▁حفاظت	-9.41765
ہا	-9.41897
▁ح	-9.41914
یز	-9.41986
▁عناصر	-9.42019
▁مزاحیہ	-9.42019
▁کاروبار	-9.42073
▁کھولا	-9.42108
▁معمولی	-9.42117
▁بشپ	-9.42123
ne	-9.42138
▁دیکھ	-9.42256
▁اسکاٹ	-9.42334
▁ادارہ	-9.4234
▁چو	-9.42459
دا	-9.42474
▁جہازوں	-9.42513
▁لیا۔	-9.42576
▁پن	-9.42596
ئ	-9.42626
▁آڈیو	-9.42635
▁فین	-9.42681
▁تارکین	-9.42947
یڈ	-9.43004
لینڈ	-9.43037
.7	-9.43116
▁صنعتی	-9.43214
▁خاتمے	-9.43255
▁ملاقات	-9.43255
▁چیک	-9.43259
▁بچ	-9.43425
▁میں۔	-9.43428
▁ونڈوز	-9.43594
دار	-9.43745
▁شاید	-9.43879
▁میگزین	-9.43881
▁ٹکسن	-9.43885
▁چلنے	-9.43892
▁اقتدار	-9.44193
▁ہمیشہ	-9.44193
▁میامی	-9.44508
▁کمزور	-9.44529
پس	-9.44556
یر	-9.44758
▁شیل	-9.4477
▁اٹلانٹک	-9.44823
▁مجموعہ	-9.44823
▁خشک	-9.44823
لز	-9.4513
▁دفتر	-9.45139
▁وجود	-9.4514
▁تربیت	-9.45143
▁روکنے	-9.4519
▁مور	-9.4528
▁مزاحمت	-9.45326
▁مارک	-9.45343
▁پتھر	-9.45457
.4	-9.45496
▁حمل	-9.45572
te	-9.45788
.2	-9.45801
▁ویب	-9.4604
▁برک	-9.46056
ائن	-9.46134
▁رینج	-9.46155
▁سرما	-9.46188
نر	-9.46257
زا	-9.46344
▁برونکس	-9.46426
▁لائٹ	-9.46438
▁موٹر	-9.46586
ض	-9.4672
▁تصویر	-9.46737
▁طوفان	-9.46737
▁میٹروپولیٹن	-9.46737
▁کنگ	-9.46926
سر	-9.46936
200	-9.46967
▁تعین	-9.47042
.1	-9.47042
▁انیسویں	-9.47059
▁ٹینیسی	-9.4706
▁رکھتی	-9.47074
▁زنک	-9.47089
انگ	-9.47149
▁اسٹور	-9.47174
▁سنگل	-9.47232
▁خیالات	-9.4725
▁شہریوں	-9.47297
▁غلبہ	-9.47383
th	-9.4742
▁مریم	-9.47424
▁مصری	-9.47447
انے	-9.47575
▁شی	-9.47697
▁موثر	-9.47708
▁اڈہ	-9.47708
▁جذبات	-9.47709
▁چیت	-9.47711
▁پین	-9.47714
.3	-9.47756
▁بلیک	-9.4777
▁بینک	-9.47861
▁رکن	-9.47939
▁نتائج	-9.48033
▁N	-9.48092
▁تحفظ	-9.48228
▁دوم	-9.48233
▁مصنف	-9.48314
یکس	-9.48324
▁علیحدگی	-9.4836
▁دولت	-9.48362
▁رجحان	-9.48525
▁تعاون	-9.48688
▁منصوبے	-9.48688
▁پھانسی	-9.48688
▁دریائے	-9.48698
▁شکاری	-9.48699
▁بناتا	-9.48774
▁جانور	-9.48847
▁ہوگئے۔	-9.48896
▁عمارتوں	-9.48918
یگ	-9.49006
▁سوسائٹی	-9.49017
▁ٹکنالوجی	-9.49017
▁ملازمت	-9.49039
▁کپاس	-9.49055
▁ہنری	-9.49122
▁فنکاروں	-9.49129
▁میئر	-9.49222
کھ	-9.49266
▁نوجوان	-9.49311
▁ہارڈ	-9.49322
▁پیچیدہ	-9.49347
▁با	-9.49553
ئر	-9.49554
is	-9.49668
▁بلکہ	-9.49678
▁اونچائی	-9.49687
▁لوئس	-9.49692
▁پولینڈ	-9.49709
▁اخبار	-9.49882
▁فضائی	-9.49924
▁امریکیوں	-9.49982
▁متن	-9.49993
▁یونیورسل	-9.5001
▁کنسرٹ	-9.50011
▁گوئی	-9.5004
▁ڈیاگو	-9.50078
▁28	-9.50101
▁جزوی	-9.50178
▁اہمیت	-9.50254
▁بادشاہی	-9.50294
▁جیسی	-9.50317
▁الزبتھ	-9.50344
▁اولمپک	-9.50471
▁ہٹ	-9.50615
▁وال	-9.50716
▁امن	-9.50763
▁پہاڑی	-9.50824
▁لہر	-9.51011
▁دعوی	-9.51012
▁احتجاج	-9.51014
▁فہرست	-9.51014
▁رہتا	-9.51039
▁آلہ	-9.5107
▁کیریئر	-9.51166
▁رشتہ	-9.5135
▁سورج	-9.51378
▁لیبیا	-9.51385
ta	-9.51452
ur	-9.51454
▁پاپ	-9.51469
گل	-9.51475
جر	-9.51499
▁سیئٹل	-9.51688
▁شرکت	-9.51688
▁رابرٹ	-9.51691
کار	-9.5171
▁ٹری	-9.51717
▁ٹریک	-9.51728
اتی	-9.51733
▁والدہ	-9.51814
▁چنگ	-9.51934
▁ڈائی	-9.5194
▁جذب	-9.51976
▁نگرانی	-9.52027
▁طے	-9.52037
انو	-9.52207
▁ایڈورڈ	-9.52372
▁2002	-9.52403
وڈ	-9.52425
▁بڑھانے	-9.52433
▁قبرص	-9.52442
▁پوری	-9.52517
از	-9.52537
لن	-9.52542
▁مخالف	-9.52582
▁گاہ	-9.52602
وین	-9.52671
st	-9.52673
▁انٹرنیشنل	-9.52709
▁پریمیئر	-9.52709
▁III	-9.5272
▁حالات	-9.52747
▁بحالی	-9.52907
▁معاشرے	-9.53051
▁مینڈولین	-9.53051
▁ڈائریکٹر	-9.53051
▁الاسکا	-9.53051
▁ادارے	-9.53051
▁26	-9.53065
▁مالک	-9.53079
▁22	-9.53082
▁مند	-9.53102
▁ادب	-9.53146
اری	-9.53339
▁بم	-9.5335
▁جاسکتی	-9.53395
▁ذرائع	-9.53395
▁فیسٹیول	-9.53395
▁مشکل	-9.53395
▁شیشے	-9.53395
▁برف	-9.53398
▁لاگو	-9.53457
▁کمیشن	-9.53463
لون	-9.53499
▁سوچ	-9.53628
▁مسئلہ	-9.5374
▁کاتالان	-9.5374
▁اصول	-9.54065
▁آرمینیا	-9.54074
▁تصدیق	-9.54086
▁مستحکم	-9.54086
▁مقدس	-9.54086
▁ہوسکتے	-9.54086
▁لمبائی	-9.54093
.9	-9.54164
T	-9.54247
64	-9.54293
ٹنگ	-9.54298
▁لکھی	-9.54309
▁ہل	-9.54326
▁آپریشن	-9.54373
▁چاہئے۔	-9.54374
▁انفرادی	-9.5444
▁دلچسپی	-9.54453
▁کینے	-9.54469
▁پیروی	-9.545
▁انتظامیہ	-9.54511
um	-9.54598
▁موضوع	-9.54641
▁ہوگئی۔	-9.54675
لیٹ	-9.54701
▁رد	-9.54806
اٹ	-9.54877
▁پب	-9.54885
▁پلیٹ	-9.54937
▁باعث	-9.55131
▁پبلک	-9.55137
▁خ	-9.55139
▁سرگرمی	-9.55154
▁سبز	-9.55157
▁بحر	-9.55211
▁فوٹو	-9.55219
▁(18	-9.55221
18	-9.55269
▁تھامس	-9.55481
ؤں	-9.55484
ئن	-9.55535
▁بناتے	-9.55536
▁ایسی	-9.55574
▁پورا	-9.55578
▁پیمائش	-9.55834
▁دل	-9.55875
▁تاج	-9.55936
▁علامت	-9.56079
▁60	-9.56103
ریٹ	-9.56127
▁بحیرہ	-9.56187
▁عوام	-9.56196
▁چند	-9.5621
▁لایا	-9.56246
ائٹ	-9.56367
▁متعلقہ	-9.56393
▁کاپی	-9.56517
▁غالب	-9.56542
▁ایشیاء	-9.56544
▁یورو	-9.56559
▁ترجیح	-9.56643
it	-9.56692
▁چیمپئن	-9.56696
▁کمانڈر	-9.56822
▁کارپوریشن	-9.56898
▁سگنل	-9.56898
▁ڈارون	-9.56904
▁راستے	-9.57061
ic	-9.57124
▁خط	-9.57176
▁چلا	-9.57216
▁موزیک	-9.57245
▁اشاعت	-9.57255
وان	-9.57262
آ	-9.57273
▁پریس	-9.5732
▁ہائیک	-9.57407
▁نیز	-9.57416
یٹ	-9.57499
▁وقف	-9.5754
at	-9.57607
▁مثبت	-9.57613
▁حملوں	-9.57668
انہ	-9.5768
▁ملتا	-9.5777
▁بارسلونا	-9.57973
▁ہائیڈروجن	-9.57978
▁انچ	-9.57985
▁شام	-9.58046
▁ماہرین	-9.58054
▁یونیورسٹیوں	-9.58058
65	-9.5806
▁اسکور	-9.58207
▁مسلح	-9.58334
مان	-9.58363
▁بانی	-9.58415
▁لیبل	-9.58609
▁واقعہ	-9.58657
▁مشن	-9.58696
▁عارضی	-9.58696
▁منظر	-9.58696
▁درد	-9.58704
▁نسبتا	-9.58723
▁کردی	-9.58735
▁برن	-9.5878
os	-9.58801
32	-9.58941
▁صوبے	-9.5906
▁مطالبہ	-9.5906
▁نشر	-9.59065
▁تکنیکی	-9.59068
▁سم	-9.59121
ہی	-9.59224
▁ایوارڈ	-9.5923
F	-9.59236
▁گے۔	-9.59265
ولا	-9.59375
ٹم	-9.59421
▁اعزاز	-9.59425
▁معاصر	-9.59425
▁منحصر	-9.59425
▁کثیر	-9.59425
▁نشریات	-9.59427
او	-9.59432
▁یقین	-9.5945
ٹل	-9.59551
▁آسان	-9.59643
▁چارٹر	-9.59667
▁اضافے	-9.59791
▁ہوٹل	-9.59839
▁حکمت	-9.59928
▁ڈیپارٹمنٹ	-9.60159
▁کالونی	-9.60178
▁ریپبلکن	-9.603
▁پول	-9.60343
-19	-9.60372
▁ریکارڈز	-9.60391
منٹ	-9.60478
34	-9.60505
▁تخمینہ	-9.60528
▁خطرے	-9.60528
▁بھاری	-9.60532
▁ایشیائی	-9.6054
▁سزا	-9.60544
▁ریلیز	-9.60637
▁خارج	-9.60811
▁آرسنل	-9.60898
▁کتوں	-9.60899
▁ہتھیار	-9.60903
▁تیسرا	-9.60907
▁حدود	-9.60915
▁خراب	-9.6098
▁کمپنیوں	-9.61064
ارا	-9.61117
▁شکاگو	-9.61271
▁شراب	-9.61271
▁فوری	-9.61388
▁وو	-9.61397
▁اندازہ	-9.61518
▁امکان	-9.61522
▁درمیانی	-9.61633
▁عکاسی	-9.6168
▁ہٹا	-9.61949
▁فو	-9.62013
▁غور	-9.62022
99	-9.62068
▁سمت	-9.62221
▁ماہ	-9.62246
▁فلوریڈا	-9.62394
▁یسوع	-9.62394
▁تخت	-9.62394
▁بالغ	-9.62466
گرا	-9.62539
▁ایسے	-9.62611
چا	-9.62669
نج	-9.62685
▁گنی	-9.6272
▁وہاں	-9.6277
▁رچمنڈ	-9.62771
▁عقیدے	-9.62771
▁وادی	-9.62779
▁حیاتیاتی	-9.62815
▁پولش	-9.6283
95	-9.62843
▁ریلے	-9.62852
▁بھیجا	-9.62912
▁پہاڑوں	-9.6297
زو	-9.63066
▁پیٹر	-9.63119
▁احاطہ	-9.6315
▁پذیر	-9.6315
▁پچھلے	-9.6315
▁چونکہ	-9.6315
.0	-9.63181
ڈس	-9.63192
فا	-9.63258
▁تبدیلیوں	-9.63351
ہر	-9.63364
▁27	-9.63381
▁یاد	-9.63414
▁آئینی	-9.63489
▁آئرش	-9.6353
▁بعض	-9.6353
▁حیدرآباد	-9.6353
▁شعبے	-9.6353
▁وین	-9.63775
▁برما	-9.63932
▁ممبران	-9.63977
78	-9.63992
بن	-9.64025
▁ماخوذ	-9.64295
▁بس	-9.644
▁جاسکے۔	-9.64405
▁ماسٹر	-9.64447
ٹیل	-9.6446
▁غلاموں	-9.64612
▁B	-9.64642
▁باشندوں	-9.64679
▁خواہش	-9.64679
▁پروجیکٹ	-9.6468
▁لبرل	-9.6468
▁شکلوں	-9.6478
▁ور	-9.64791
▁ضم	-9.65027
▁ادویات	-9.65066
▁اشارہ	-9.65066
▁موازنہ	-9.65066
فیل	-9.65098
▁مخالفت	-9.65156
زر	-9.65231
▁لنک	-9.65253
▁مخفف	-9.65453
▁کش	-9.65455
▁1940	-9.65484
25	-9.65492
▁سنبھال	-9.65672
▁زبانیں	-9.65776
▁گارڈ	-9.65794
▁فائنل	-9.65813
▁گھنٹے	-9.65842
▁اقدامات	-9.65865
▁آرٹسٹ	-9.66024
▁دان	-9.66103
▁کانفرنس	-9.66135
▁ہتھیاروں	-9.66228
▁آٹھویں	-9.66233
▁کمیونسٹ	-9.66256
▁ہزار	-9.66258
▁انسان	-9.66379
▁80	-9.66383
▁(2	-9.6644
لے	-9.66483
▁تیسرے	-9.66625
▁قرآن	-9.66625
▁مرحلے	-9.66625
▁دوسروں	-9.66626
▁سنسکرت	-9.66989
▁بحث	-9.67019
▁محمد	-9.67019
▁زمینی	-9.67041
▁قبائل	-9.67074
▁خیالی	-9.6716
▁سائیکل	-9.67319
as	-9.67366
▁کنونشن	-9.67414
▁معنی	-9.67414
▁ما	-9.67492
17	-9.67526
یکل	-9.67703
▁لیبر	-9.67772
▁نیپچون	-9.67811
▁جھیل	-9.67811
▁بردار	-9.67813
مک	-9.67959
▁لیون	-9.68002
لس	-9.68016
رون	-9.68036
▁حال	-9.68128
▁اکیڈمی	-9.68209
▁حتمی	-9.68209
▁محسوس	-9.68209
اور	-9.68326
ٹک	-9.68365
▁برازیل	-9.68552
▁ہسپتال	-9.68609
▁طرز	-9.68614
▁رائٹ	-9.68869
14	-9.68954
▁آفس	-9.68964
وپ	-9.68987
▁چھوٹا	-9.69011
▁بیٹے	-9.69016
▁واٹر	-9.69111
▁ہوگا	-9.69248
--	-9.69311
▁فائر	-9.69319
ni	-9.69339
▁مسلم	-9.69367
▁شاخ	-9.69374
▁معاہدوں	-9.69414
▁ہیڈکوارٹر	-9.69414
▁برابر	-9.69421
▁ایجنسی	-9.69451
▁ہیلینا	-9.69452
▁کھیلا	-9.69529
▁جغرافیائی	-9.69819
▁بک	-9.69993
الی	-9.70048
سکی	-9.70079
85	-9.70224
▁اشیاء	-9.70225
▁تجزیہ	-9.70225
▁ثبوت	-9.70225
▁پانچویں	-9.70226
el	-9.70337
لیس	-9.70416
▁ٹیکنالوجی	-9.70432
▁ممکن	-9.70547
▁تناسب	-9.70634
▁جوہری	-9.70638
▁گن	-9.70646
▁چلانے	-9.70683
▁عیسائیت	-9.70789
▁جانچ	-9.70944
v	-9.70964
▁کاروباری	-9.70971
▁تقریر	-9.71043
▁پرندے	-9.71043
▁گی۔	-9.71103
▁اسلام	-9.71124
56	-9.71148
▁اسٹار	-9.71414
▁تیاری	-9.71416
▁فیصلے	-9.71455
▁مداخلت	-9.71455
▁زرعی	-9.71455
▁جم	-9.71543
▁90	-9.71606
▁فریم	-9.71641
12	-9.71747
▁فاصلے	-9.71868
▁منافع	-9.71868
ولوجی	-9.71956
لڈ	-9.72108
▁شوارزنیگر	-9.72283
▁1991	-9.72303
▁1930	-9.72313
H	-9.72369
▁مٹی	-9.72574
▁جزیروں	-9.727
▁مناسب	-9.727
▁وزارت	-9.727
▁رویے	-9.727
▁اختلافات	-9.72714
▁صومالیہ	-9.72825
▁دیکھی	-9.73005
▁خریدا	-9.73046
▁سیکیورٹی	-9.73118
▁صحرا	-9.73118
▁مضامین	-9.73118
▁سلوک	-9.73121
▁دکھایا	-9.73147
33	-9.73152
ائے	-9.73296
▁ریس	-9.73315
▁ٹاور	-9.73372
▁یقینی	-9.7351
▁باقاعدہ	-9.73538
▁بشریات	-9.73538
▁بائبل	-9.73543
▁وائی	-9.73591
ایک	-9.73607
U	-9.73608
▁D	-9.73694
▁لارڈ	-9.73788
▁ذخیرہ	-9.7396
▁ارکان	-9.73963
▁خون	-9.73976
60	-9.74038
▁گریٹ	-9.74125
▁خاندانوں	-9.74167
▁فلپ	-9.74192
بہ	-9.74244
▁ڈین	-9.74329
10	-9.74354
▁طبقے	-9.74384
73	-9.74392
▁فر	-9.74485
ئس	-9.74704
ایا	-9.74756
ائز	-9.74809
▁زراعت	-9.7481
▁سلسلہ	-9.7481
▁سلسلے	-9.7481
▁میڈیکل	-9.74815
▁لکھے	-9.74841
▁نائٹ	-9.74881
لٹ	-9.74889
▁انڈیا	-9.74927
وو	-9.75005
▁ہن	-9.75041
▁آرٹس	-9.75066
ریا	-9.7509
▁بہن	-9.75198
G	-9.75207
▁مون	-9.75214
▁تحلیل	-9.75237
▁لباس	-9.75237
▁متحرک	-9.75237
ھی	-9.75311
▁ڈاکٹر	-9.75329
▁پٹ	-9.75411
▁پنک	-9.75433
▁تبتی	-9.75556
کٹ	-9.75561
X	-9.75666
70	-9.75674
لنگ	-9.75676
▁مصروف	-9.75688
to	-9.75926
▁لاس	-9.76012
59	-9.76015
▁اسپیلبرگ	-9.76097
▁منصوبوں	-9.76097
▁ساؤتھ	-9.76097
▁ورانہ	-9.76109
▁سروے	-9.76123
J	-9.76243
▁ٹرین	-9.76285
▁ہیم	-9.76317
68	-9.76411
▁گیل	-9.76478
▁35	-9.765
▁مختار	-9.7653
ونی	-9.76734
▁(1	-9.76872
▁پڑتا	-9.76895
▁کان	-9.76908
▁لقب	-9.76965
▁خطرہ	-9.76971
▁70	-9.76991
▁O	-9.77049
co	-9.7706
▁سلاو	-9.77138
▁بحال	-9.77148
▁لائسنس	-9.77303
▁شہزادہ	-9.77402
▁مساوی	-9.77404
▁31	-9.77439
▁جینوم	-9.77439
▁فورسز	-9.77455
▁واپسی	-9.77471
▁صدارتی	-9.77562
▁کوششوں	-9.77766
▁ہوگیا	-9.7778
لک	-9.77836
38	-9.77846
▁نیوز	-9.77853
▁لین	-9.77914
▁سونے	-9.78021
▁تقریب	-9.78107
▁ترکی	-9.78118
se	-9.7812
▁ایٹ	-9.78134
▁تشریح	-9.78281
▁رچرڈ	-9.78281
▁مہارت	-9.78281
▁وجوہات	-9.78281
▁کیلنڈر	-9.78281
▁سوئس	-9.78303
▁اٹھایا	-9.78315
▁ساز	-9.78686
▁حرکت	-9.78723
▁محکمہ	-9.78723
▁مہینے	-9.78723
▁ہفتہ	-9.78723
▁مصنفین	-9.78786
▁رہا۔	-9.78823
▁نشانہ	-9.78861
90	-9.78943
▁تحقیقات	-9.78965
▁غلام	-9.78993
نیل	-9.79004
▁U	-9.79037
▁لفٹ	-9.79066
ia	-9.79075
▁عورت	-9.79168
▁1997	-9.79182
ئے	-9.7931
ود	-9.79347
ol	-9.79403
▁کلو	-9.79424
▁نوآبادیاتی	-9.79426
91	-9.79446
▁ڈے	-9.79524
▁نامی	-9.79568
▁پروڈیوسر	-9.79614
▁وسائل	-9.79617
▁بنے	-9.79629
▁لیزر	-9.79672
▁خالص	-9.80062
▁مستقبل	-9.80062
▁ریزرو	-9.80064
▁مالیاتی	-9.80084
▁الپس	-9.801
▁امیر	-9.80112
▁صدیوں	-9.80254
▁گول	-9.80283
▁لگا	-9.80405
مس	-9.80426
na	-9.80445
▁یادگار	-9.80513
▁پرواز	-9.80534
▁باکس	-9.80558
پٹ	-9.80577
▁آتا	-9.80596
ce	-9.80764
▁ایبی	-9.80814
▁روٹ	-9.8082
پور	-9.80825
▁اپیل	-9.80836
▁انٹارکٹیکا	-9.80965
▁تبادلہ	-9.80965
▁لاگت	-9.80966
▁پناہ	-9.80966
▁والدین	-9.81054
▁پری	-9.81098
▁ڈیوڈ	-9.81161
رہ	-9.81185
88	-9.81255
▁کہتے	-9.81412
▁برقی	-9.8142
▁جرائم	-9.8142
▁والنسیا	-9.8142
▁شیئر	-9.81441
▁ایڈیشن	-9.81455
ha	-9.81483
ینٹ	-9.81502
▁کہانی	-9.8151
▁ہندو	-9.81566
▁درج	-9.8161
▁پڑوس	-9.81716
▁اتحادی	-9.81765
▁انسانیت	-9.81803
ā	-9.81876
▁مشاہدہ	-9.81877
▁بھال	-9.81896
ma	-9.81907
▁رائے	-9.81931
یکا	-9.82092
نین	-9.82103
▁اپولو	-9.82113
▁بیسویں	-9.82336
▁اخراجات	-9.82365
▁لاج	-9.82406
▁کشی	-9.82578
▁ایوارڈز	-9.82589
▁ارتقاء	-9.82796
▁مطالعے	-9.82796
▁روزانہ	-9.82802
▁پھیلاؤ	-9.82826
▁روح	-9.82827
▁پہلو	-9.82873
V	-9.82904
▁دیہی	-9.82949
▁پرانی	-9.82958
یسی	-9.83152
ٹز	-9.83162
▁ہزاروں	-9.8323
▁عطیہ	-9.83259
▁ممتاز	-9.83259
برٹ	-9.833
▁چارلسٹن	-9.83301
▁انعام	-9.8335
▁پرو	-9.83391
سلی	-9.83401
▁آہنگی	-9.83502
▁ساتھ۔	-9.83627
▁ٹرانس	-9.83706
سٹی	-9.83722
▁منسوخ	-9.83724
▁مشق	-9.83724
▁زوال	-9.83727
▁نمودار	-9.83727
▁1920	-9.83763
ڈون	-9.83773
nd	-9.83931
▁کارل	-9.84023
▁متحد	-9.84104
▁بادشاہت	-9.84111
▁W	-9.84117
92	-9.84138
▁نظم	-9.84191
▁وصول	-9.84192
▁ٹن	-9.84204
▁خانے	-9.84255
▁درجے	-9.84267
▁تکنیک	-9.84284
▁جیتنے	-9.84289
▁دوست	-9.84398
13	-9.84625
مون	-9.84636
▁طاقتوں	-9.84652
▁عقائد	-9.84661
▁مساوات	-9.84661
▁پاؤنڈ	-9.84661
48	-9.8471
▁جنگوں	-9.84756
▁نوآبادیات	-9.84859
▁ایوان	-9.8491
زن	-9.84915
▁پلانٹ	-9.84927
▁میٹرو	-9.84953
▁پرستی	-9.85073
▁لوک	-9.85106
▁افسران	-9.85158
▁سڑک	-9.85158
▁تعینات	-9.85159
▁بدعنوانی	-9.85197
▁خارجہ	-9.85244
نیا	-9.85398
▁نیومن	-9.85439
▁فاتح	-9.8556
روں	-9.85575
▁سینڈ	-9.85585
▁خفیہ	-9.85607
▁قابو	-9.85607
▁کیتھیڈرل	-9.85607
▁1998	-9.85626
▁آسٹریلیائی	-9.85649
▁پہنچنے	-9.8568
▁ایپلی	-9.85682
ائل	-9.85702
▁برادری	-9.85715
▁عربی	-9.85744
79	-9.85831
▁ناکامی	-9.85868
▁سست	-9.85918
▁ادبی	-9.85963
▁کیں۔	-9.85988
▁لیڈ	-9.85992
▁مندر	-9.86058
شر	-9.86065
▁دہ	-9.86082
▁اریٹیریا	-9.86083
▁معروف	-9.86083
▁چاہتا	-9.86083
دو	-9.8609
▁1989	-9.86102
▁1999	-9.8611
▁جیک	-9.86136
▁ویسٹرن	-9.86137
▁انجینئرنگ	-9.86146
▁مثالیں	-9.8618
،000	-9.86283
no	-9.86355
▁500	-9.86462
▁تعدد	-9.86561
▁کھلاڑی	-9.86674
▁کاروں	-9.86731
▁امداد	-9.86788
▁بولیوں	-9.86924
▁چینل	-9.86984
▁ثابت	-9.87042
▁لمبی	-9.87042
▁تجدید	-9.87044
▁اسٹون	-9.87064
▁180	-9.87086
▁دائرہ	-9.87099
▁چوٹی	-9.87155
▁اختیارات	-9.87196
▁تنظیموں	-9.87314
▁V	-9.87337
▁کھلاڑیوں	-9.87411
▁امپیریل	-9.87525
▁برمودا	-9.87525
▁چاہتے	-9.87525
▁ٹرمینل	-9.87525
▁وولٹیج	-9.87526
▁بہار	-9.87528
▁ناول	-9.87556
▁جائزہ	-9.87562
ینز	-9.87747
▁گریڈ	-9.88003
▁ڈا	-9.88007
▁ہفتے	-9.88011
▁اسکوائر	-9.88011
▁پودے	-9.88011
مور	-9.88045
▁بلڈنگ	-9.88053
▁بانڈ	-9.88058
▁تعمیراتی	-9.881
▁بلب	-9.88124
▁عملے	-9.88146
▁رسم	-9.88294
▁کینن	-9.88418
▁اسپ	-9.88429
▁بش	-9.88432
▁باہمی	-9.88498
▁ملوث	-9.88498
▁کثرت	-9.88498
▁یوٹیوب	-9.88498
▁عہدے	-9.88536
▁ہاتھ	-9.88626
▁بھائی	-9.88646
▁نرم	-9.88714
75	-9.88788
▁کیمیائی	-9.88992
▁منفی	-9.88995
لر	-9.89102
▁تہوار	-9.89113
▁سرد	-9.89222
▁الٹ	-9.89327
▁ماہی	-9.89332
55	-9.8945
45	-9.89468
▁سہولت	-9.89481
▁ناقابل	-9.89481
▁پروفیسر	-9.89481
▁کثافت	-9.89481
▁ٹریفک	-9.89481
مپ	-9.895
▁بورو	-9.89539
▁ڈرائیو	-9.8977
▁لیس	-9.8995
▁ریاضی	-9.89969
▁ڈسٹرکٹ	-9.89976
▁دیکھنے	-9.90042
▁ڈالا	-9.90068
▁راستہ	-9.90245
si	-9.90339
▁پوپر	-9.90478
▁پرائمری	-9.90496
▁دھات	-9.90573
▁درخت	-9.90606
▁سلاوی	-9.90731
▁شمولیت	-9.90974
▁انگریزوں	-9.91032
86	-9.91043
▁جنم	-9.91066
▁جج	-9.91176
▁جزو	-9.91228
▁پوائنٹ	-9.91269
▁نوٹری	-9.9142
▁آمد	-9.91437
▁ماس	-9.91457
▁درست	-9.91465
▁رومی	-9.91472
▁تنوع	-9.91476
ٹیو	-9.91567
لہ	-9.91669
▁ساخت	-9.91727
روس	-9.91751
ای	-9.91882
▁نیوزی	-9.91935
▁اجلاس	-9.91981
▁احساس	-9.91981
▁کنارے	-9.91981
▁کریڈٹ	-9.91982
▁کنسول	-9.91983
▁فاؤنڈیشن	-9.91987
▁کہنا	-9.9204
▁سینیٹ	-9.92055
▁de	-9.9209
▁جوزف	-9.92173
▁200	-9.92236
ریس	-9.92352
▁سربراہی	-9.92419
▁لائنوں	-9.92424
▁لوڈ	-9.92437
▁الیگزینڈر	-9.92489
▁تسلسل	-9.92489
▁شعبوں	-9.92489
▁صورت	-9.92489
▁نوعیت	-9.92489
▁گوتھک	-9.92489
▁سیچوان	-9.92489
▁تابکاری	-9.92512
▁بدلے	-9.92548
▁پروشین	-9.92561
▁پرفارم	-9.9257
▁بلیو	-9.92663
39	-9.92675
▁ریل	-9.92754
▁سونی	-9.9282
اپ	-9.92847
▁مارا	-9.92867
Y	-9.92999
▁پریسبیٹیرین	-9.92999
▁پیسیفک	-9.92999
▁چیلنج	-9.92999
▁کیلیفورنیا	-9.92999
▁ساتویں	-9.92999
▁مفت	-9.9301
ca	-9.93041
گھ	-9.93062
▁فورٹ	-9.93089
▁عمارتیں	-9.93189
ing	-9.93206
مز	-9.9335
▁فلموں	-9.93351
▁نکال	-9.93355
▁ایرانی	-9.93498
-2	-9.93504
▁بااثر	-9.93512
▁روایات	-9.93512
▁علیحدہ	-9.93512
▁ڈیفنس	-9.93512
▁زمانے	-9.93515
▁دیوتاؤں	-9.93518
اج	-9.93607
22	-9.93616
▁گرمی	-9.93623
▁دورے	-9.93634
▁فارسی	-9.93637
un	-9.93665
▁ٹریڈ	-9.93671
▁ایونٹ	-9.93742
▁انقلابی	-9.93744
▁اقلیتی	-9.93796
▁ٹیٹو	-9.93946
▁45	-9.93993
▁ہپ	-9.94007
▁اعتماد	-9.94027
▁تفویض	-9.94027
▁موقع	-9.94027
▁سرگرمیوں	-9.94058
▁مصنوعی	-9.9406
▁جیتا	-9.94092
تر	-9.9411
▁دینا	-9.9412
کٹر	-9.94169
▁چھٹی	-9.94182
ھا	-9.94194
▁تباہی	-9.94284
▁رسمی	-9.94305
▁جاسکے	-9.94396
▁پیٹ	-9.94537
▁شہزادی	-9.94545
▁فلاڈیلفیا	-9.94545
▁ہنگری	-9.94546
▁II	-9.94581
این	-9.94581
گرام	-9.94583
بیری	-9.94605
▁بڑھتے	-9.94621
▁وزن	-9.9468
▁اسٹوڈیو	-9.94865
▁اسٹاف	-9.9489
▁انضمام	-9.95066
▁تجربے	-9.95066
▁پھل	-9.95066
▁کارنیول	-9.95067
▁سیاست	-9.95067
▁وارسا	-9.95097
▁ٹیموں	-9.95155
ڈور	-9.95174
▁پینٹ	-9.95317
مب	-9.95321
▁غلطی	-9.9536
36	-9.95523
یٹر	-9.95523
▁انفیکشن	-9.9559
▁بوجھ	-9.9559
▁لکھنے	-9.95611
▁بحریہ	-9.95798
▁دیوار	-9.95831
▁مونٹی	-9.95858
▁الہیات	-9.96048
ذ	-9.96106
▁اوپیرا	-9.96116
یکٹ	-9.96223
شو	-9.96225
▁کانگو	-9.96436
▁29	-9.96519
89	-9.96632
▁مائکرو	-9.96643
▁کپڑے	-9.96645
▁بازنطینی	-9.96645
▁خرچ	-9.96646
98	-9.96784
▁ریٹ	-9.96824
ter	-9.96843
▁سیکشن	-9.96875
▁طاقتور	-9.96933
▁تحریری	-9.96953
ti	-9.96994
▁ثقافتوں	-9.97013
▁شکلیں	-9.97142
▁استعفیٰ	-9.97177
▁شواہد	-9.97177
▁مسئلے	-9.97177
▁قوت	-9.97179
▁رہنماؤں	-9.97197
▁پانے	-9.97202
▁جنگلی	-9.97209
▁نور	-9.97241
▁لیک	-9.97261
▁میری	-9.97281
▁a	-9.97282
▁انتظامی	-9.9729
▁دستاویز	-9.97414
69	-9.97455
▁لئے۔	-9.9748
▁پرنٹ	-9.97533
▁اصطلاحات	-9.97566
▁جائیداد	-9.97712
▁رضامندی	-9.97712
▁مخلوط	-9.97712
▁نسلوں	-9.97735
▁کینیڈین	-9.97762
▁میٹ	-9.97807
▁کین	-9.97858
▁سادہ	-9.97875
▁فائل	-9.97887
▁عہدیداروں	-9.97938
دہ	-9.9797
▁مسافروں	-9.97984
▁آپریشنز	-9.98024
▁اوور	-9.9803
▁نظریاتی	-9.98174
▁مطالعات	-9.9825
▁ریسرچ	-9.9825
نیٹ	-9.98285
29	-9.98291
62	-9.98375
کشن	-9.98378
▁طبی	-9.98397
27	-9.98523
▁مطابقت	-9.98567
▁بجٹ	-9.9879
▁خاتمہ	-9.9879
▁نائب	-9.9879
▁نچلے	-9.9879
▁کیمپ	-9.9879
▁پیرا	-9.98813
مل	-9.98814
j	-9.98857
▁منٹ	-9.98947
▁میزبان	-9.99082
▁پروگراموں	-9.99233
1,	-9.99289
ed	-9.99331
▁فطرت	-9.99334
▁ہدف	-9.99334
▁سیکرٹری	-9.99334
▁دیں	-9.99379
▁کاربن	-9.99392
▁پادری	-9.99512
▁مارول	-9.99517
▁بیونس	-9.99557
46	-9.99674
▁کلی	-9.9979
▁بیٹی	-9.99814
▁امید	-9.99877
▁بالترتیب	-9.9988
▁تقرری	-9.9988
▁قبضے	-9.9988
▁نصوص	-9.9988
▁ورجینیا	-9.9988
▁پاکستان	-9.99882
▁VI	-9.99884
▁ٹیکساس	-9.99953
▁آٹو	-9.99958
▁فیشن	-10.0001
▁کیبل	-10.0009
▁پروڈکشن	-10.0023
▁بادشاہوں	-10.0031
▁روز	-10.0031
▁ہوئیں	-10.0035
▁رومیوں	-10.0037
▁صورتحال	-10.0043
▁مقاصد	-10.0043
▁اونچی	-10.0043
▁پروٹین	-10.0045
▁معیارات	-10.0059
▁پلیئر	-10.0059
▁بیٹا	-10.006
▁کلبوں	-10.0085
▁باشندے	-10.0098
▁درآمد	-10.0098
▁رابطے	-10.0098
▁زائرین	-10.0098
▁نورفولک	-10.0098
▁تووالو	-10.0098
▁مقبولیت	-10.0107
▁گرفتار	-10.011
یور	-10.0111
▁فرانسیسیوں	-10.0123
▁فنڈ	-10.0129
▁ڈیوک	-10.0144
▁ماؤنٹ	-10.0147
37	-10.0152
ul	-10.0154
▁ردعمل	-10.0154
▁خاتون	-10.0154
▁پھیلا	-10.0155
▁کتابوں	-10.0157
ینا	-10.0157
▁شخصیت	-10.0162
▁باس	-10.0177
53	-10.0184
mi	-10.0188
▁بہتری	-10.0188
▁گولی	-10.0193
▁اتحادیوں	-10.0205
▁عرفی	-10.021
▁حساب	-10.021
▁(3	-10.0215
▁ایشیا	-10.0217
▁خودمختاری	-10.0218
▁شکاریوں	-10.0225
▁ایریا	-10.0236
▁p	-10.0241
▁ہیرو	-10.0243
▁طیاروں	-10.0266
▁عبادت	-10.0266
▁نظرانداز	-10.0266
▁کرسکتی	-10.0266
▁لازمی	-10.0266
▁تغیرات	-10.0268
ائزیشن	-10.0268
▁فورا	-10.0274
▁بمباری	-10.0281
▁عثمانیہ	-10.0288
▁بیورو	-10.0289
ہو	-10.0291
▁دفاعی	-10.0297
58	-10.0311
▁یوگوسلاویہ	-10.0322
49	-10.0322
▁ویلز	-10.0322
▁1945	-10.0325
▁چلایا	-10.0332
▁پرنس	-10.0335
یف	-10.0345
▁کارڈینل	-10.0359
96	-10.0361
▁گزر	-10.0367
ومی	-10.0371
▁ذخائر	-10.0379
▁وراثت	-10.0379
▁یہوواہ	-10.0379
▁سوال	-10.0383
یون	-10.0386
▁بچنے	-10.0387
▁بیجنگ	-10.0388
▁کورک	-10.039
▁منگول	-10.0399
▁مس	-10.0408
▁غلامی	-10.0412
▁اسرائیلی	-10.0418
▁پک	-10.0424
▁معلوم	-10.0429
▁انڈسٹری	-10.0436
▁ماضی	-10.0436
▁تازہ	-10.0436
▁سمجھتے	-10.0438
▁رکھے	-10.0442
▁آتی	-10.0445
▁آبائی	-10.0446
▁لگ	-10.0446
▁مزدوری	-10.0447
▁ہانگ	-10.0447
81	-10.0449
me	-10.0451
▁کارکنوں	-10.0453
▁نسب	-10.0458
رب	-10.0466
ں	-10.0489
▁لسانی	-10.0489
▁اتھارٹی	-10.0494
▁صحیح	-10.0494
▁اسفالٹ	-10.0494
▁مراکز	-10.0494
▁چارج	-10.0494
▁لگتا	-10.0498
▁دستاویزات	-10.0499
فل	-10.0502
▁سوچا	-10.0518
19	-10.052
vi	-10.0545
رل	-10.0546
▁براؤن	-10.0552
▁حوالے	-10.0552
▁طیارے	-10.0552
▁نینٹینڈو	-10.0552
▁ٹرانسمیشن	-10.0552
▁کیشنز	-10.0554
▁میسنری	-10.0555
▁گری	-10.0557
id	-10.0561
▁رہائشیوں	-10.0572
▁برلن	-10.0575
ci	-10.0576
▁تجرباتی	-10.0577
▁تجربات	-10.0584
▁مائیکروسافٹ	-10.061
▁ویتنام	-10.061
▁کھٹمنڈو	-10.061
▁چوتھی	-10.061
میٹ	-10.0615
یری	-10.0618
▁باقیات	-10.0622
▁عوامل	-10.0625
فور	-10.0636
▁ڈبل	-10.0643
▁ہیٹن	-10.065
ینڈ	-10.0658
▁ڈائ	-10.0667
▁تنازعات	-10.0668
▁یوکرائن	-10.0668
,000	-10.0669
▁مادہ	-10.0669
▁اصولوں	-10.0672
بون	-10.0674
▁فرنٹ	-10.0677
▁اسکالرز	-10.0678
▁(4	-10.0688
▁امیدوار	-10.069
51	-10.0692
▁گنا	-10.0705
▁اجداد	-10.0727
▁ادائیگی	-10.0727
▁بخش	-10.0727
▁خوردہ	-10.0727
▁کائنات	-10.0728
▁محبت	-10.0728
▁بور	-10.0738
▁پیانو	-10.0743
فٹ	-10.0762
▁ٹیمیں	-10.0768
47	-10.0769
▁عیسائیوں	-10.0771
▁کمیونٹیز	-10.0774
▁نیم	-10.0779
▁استحکام	-10.0786
▁تصاویر	-10.0786
▁ہفتوں	-10.0786
▁مقناطیسی	-10.0793
K	-10.0804
84	-10.0804
▁فلسفی	-10.0808
▁پڑوسی	-10.0809
▁بیماریوں	-10.081
▁اسٹین	-10.0812
▁ہیل	-10.0819
▁سیاحت	-10.0822
بیٹ	-10.0831
▁سیکنڈ	-10.084
▁منشیات	-10.0846
▁منفرد	-10.0846
▁ٹائٹل	-10.0846
ریج	-10.0847
▁ڈالنے	-10.0854
ؤ	-10.0856
93	-10.0857
▁خانقاہ	-10.0869
▁لائی	-10.0884
▁یونانیوں	-10.0891
▁آل	-10.0892
▁بوٹ	-10.0893
▁ایسڈ	-10.0894
▁سامعین	-10.0906
▁مضمون	-10.0906
▁مہینوں	-10.0906
▁سیکھنے	-10.0906
▁گوام	-10.0908
▁1979	-10.0908
▁1988	-10.0908
▁مورخین	-10.0908
▁ڈیموکریٹک	-10.0909
▁مراد	-10.091
▁ڈاک	-10.0911
سٹین	-10.0917
26	-10.0924
▁جرمنوں	-10.093
▁حکومتوں	-10.0951
83	-10.0954
▁اصلاح	-10.0955
▁اہداف	-10.0966
▁بمقابلہ	-10.0966
▁قبیلے	-10.0966
▁چوتھے	-10.0966
برا	-10.0967
▁فرینک	-10.0971
▁سانٹا	-10.0978
▁آہنگ	-10.0995
شیا	-10.0998
تقریبا	-10.1001
▁پروٹو	-10.1005
▁(5	-10.1015
▁میموری	-10.1017
63	-10.1018
▁BYU	-10.1026
▁1939	-10.1029
فو	-10.1036
▁بڑھایا	-10.1041
▁ریم	-10.1047
▁ایو	-10.1048
▁زد	-10.1052
▁تال	-10.1058
ولی	-10.1073
▁جدوجہد	-10.1087
▁راؤنڈ	-10.1087
▁ساؤنڈ	-10.1087
▁ایورٹن	-10.1087
▁میڈیسن	-10.1088
▁فاکس	-10.1088
▁بولتے	-10.1089
▁رہتی	-10.1091
▁خریداری	-10.1096
▁ہوگیا۔	-10.1108
▁رکھا۔	-10.113
ئل	-10.1135
▁بھ	-10.1137
▁پڑھ	-10.1138
ورا	-10.1143
▁ابھر	-10.1147
سیس	-10.1148
...	-10.1149
▁اہتمام	-10.1149
▁متنازعہ	-10.1149
▁فلپائن	-10.115
▁نمک	-10.1151
hi	-10.1161
واں	-10.1165
77	-10.1186
▁بنانا	-10.1197
▁منی	-10.12
ولو	-10.1203
▁تصورات	-10.1203
▁تشخیص	-10.121
▁جانبدار	-10.121
▁صوبہ	-10.121
▁گریجویٹ	-10.121
▁گوشت	-10.121
▁خلیج	-10.121
▁1994	-10.1212
▁2016	-10.1213
▁لائیو	-10.1221
▁فرد	-10.1225
▁بالکل	-10.1226
▁چھوڑنے	-10.1229
▁حریف	-10.1236
سٹن	-10.1237
▁مسلمانوں	-10.124
▁رنگین	-10.1245
ونڈ	-10.1246
▁گلوکار	-10.1264
82	-10.127
▁انکشاف	-10.1273
▁شرائط	-10.1273
▁طلب	-10.1273
▁لائف	-10.1273
▁مبینہ	-10.1273
▁ڈانس	-10.1277
▁بپٹسٹ	-10.1289
اے	-10.1293
▁لاک	-10.1294
▁رن	-10.1295
▁اشکنازی	-10.1297
▁افتتاح	-10.131
▁ٹائ	-10.1311
57	-10.1313
بین	-10.1321
▁300	-10.1324
ٹیم	-10.1327
ph	-10.1328
▁کالونیوں	-10.1335
▁ریستوراں	-10.1335
▁1949	-10.1337
▁1995	-10.1339
▁فرش	-10.1345
▁مونو	-10.1356
▁ڈور	-10.1377
▁الیکٹرانک	-10.1385
▁+	-10.1387
▁گیٹ	-10.1396
چو	-10.1398
▁1941	-10.1398
▁اطلاق	-10.1398
ہن	-10.1401
▁پرفارمنس	-10.1401
▁جذباتی	-10.1407
گین	-10.1409
di	-10.1415
▁ہاپ	-10.142
▁پھول	-10.1424
▁حامی	-10.1424
▁مدتی	-10.1433
بس	-10.1435
▁آسانی	-10.1446
71	-10.1447
▁بلاک	-10.1448
▁بدل	-10.1454
Z	-10.1459
▁طبیعیات	-10.1461
▁مشورہ	-10.1461
W	-10.1471
وکس	-10.1478
▁برج	-10.1479
35	-10.1483
▁اسٹیشنوں	-10.1485
▁باب	-10.1503
▁ہوگی	-10.151
▁دیوتا	-10.1524
▁سفارش	-10.1525
▁معاملے	-10.1525
▁ٹکڑے	-10.1525
▁سوانح	-10.1526
▁خلائی	-10.1527
▁اولاد	-10.1528
▁کیڑوں	-10.1528
▁آتے	-10.1532
▁گیلری	-10.1535
▁مضافاتی	-10.1535
▁مائیکل	-10.1536
▁ملتے	-10.1541
▁جماعتوں	-10.1556
▁واقعے	-10.1563
72	-10.157
▁جانشین	-10.1573
▁میس	-10.1584
▁آثار	-10.1589
▁بیڑے	-10.1589
▁کٹ	-10.1593
▁ہائ	-10.1595
▁ماں	-10.1605
▁سینٹی	-10.1611
▁ازم	-10.1612
▁جرم	-10.1629
▁360	-10.1635
مونٹ	-10.1644
▁ابتدا	-10.1651
▁سماعت	-10.1654
▁لیبارٹری	-10.1654
▁کولمبیا	-10.1654
▁انٹیلی	-10.1654
▁منسٹر	-10.1654
▁1974	-10.1656
▁120	-10.1658
va	-10.1663
▁تہذیب	-10.1682
▁نیک	-10.1685
▁رول	-10.1687
▁پابند	-10.1691
▁سوم	-10.1694
▁دہائیوں	-10.1697
▁سرکٹ	-10.1703
▁لانگ	-10.1705
سٹا	-10.1713
▁ترغیب	-10.1719
▁بزنس	-10.1719
▁میزائل	-10.1719
▁لوتھر	-10.172
▁1992	-10.1721
il	-10.1725
▁بائیوٹکس	-10.1728
▁سین	-10.1728
▁نکل	-10.1731
▁یعنی	-10.1742
▁داخلہ	-10.1754
▁ٹرسٹ	-10.1763
16	-10.1765
▁انتخابی	-10.1769
▁میڈ	-10.178
▁1987	-10.1784
▁اعانت	-10.1784
▁احکامات	-10.1784
▁پروشیا	-10.1785
▁نیلے	-10.1785
2)	-10.1786
▁1996	-10.1786
▁آباؤ	-10.1788
▁ابھی	-10.1792
وسین	-10.1794
میر	-10.1817
▁تار	-10.182
▁رہ	-10.1832
▁کرلیا	-10.1835
آئی	-10.1836
▁آدمی	-10.185
▁حکام	-10.185
▁رقص	-10.185
▁قسطنطنیہ	-10.185
▁کنفیڈریشن	-10.185
▁برائے	-10.185
سٹک	-10.185
▁چیئرمین	-10.185
▁بتایا	-10.185
▁(20	-10.1851
▁اتنا	-10.1857
▁کھول	-10.1858
▁قربانی	-10.1879
▁ریاستیں	-10.1885
▁تھر	-10.1889
▁ہو۔	-10.1901
▁گھڑی	-10.1914
▁میوزیکل	-10.1916
▁اینگلو	-10.1916
▁فلکیات	-10.1916
▁خالی	-10.1917
▁کول	-10.1919
▁کسانوں	-10.1919
ng	-10.192
▁فال	-10.1921
▁اجتماعی	-10.1922
▁جمہوریت	-10.1922
رم	-10.1926
▁ساحلی	-10.194
▁فلیٹ	-10.1943
زین	-10.1949
▁گروہ	-10.195
یئس	-10.1954
آر	-10.1956
▁نفسیات	-10.1957
▁خرابی	-10.1968
▁گیمز	-10.197
▁عالمگیر	-10.1983
▁مؤثر	-10.1983
▁اڈوں	-10.1983
▁پینل	-10.1984
▁1969	-10.1985
▁تحقیقی	-10.1987
▁بائیو	-10.1987
▁باڈی	-10.1988
▁آئن	-10.1989
▁قیمتوں	-10.199
▁150	-10.2
▁$	-10.2002
97	-10.2004
67	-10.2005
▁چھت	-10.201
یٹس	-10.201
▁جائے۔	-10.2011
▁تقریبات	-10.2012
76	-10.2012
▁مواقع	-10.205
▁کمپریشن	-10.205
▁اسکرین	-10.205
▁اسٹاک	-10.205
▁جشن	-10.2051
▁سوشلسٹ	-10.2053
21	-10.2054
▁(17	-10.2066
▁ابن	-10.2073
کون	-10.2075
▁سائنسدان	-10.208
مہ	-10.2082
▁ٹول	-10.2083
▁پڑا۔	-10.2088
▁پلان	-10.2088
74	-10.2091
▁عبور	-10.2092
▁کھلا	-10.2093
▁نگار	-10.2099
▁جیو	-10.2117
▁آرکسٹرا	-10.2117
▁بجے	-10.2117
▁نصب	-10.2117
▁فیڈریشن	-10.2117
▁امتیازی	-10.2121
sa	-10.2124
▁ملٹی	-10.2142
▁کارروائیوں	-10.2142
▁بناتی	-10.2145
▁اقلیت	-10.2148
▁اسٹورز	-10.216
ڈیل	-10.2164
پورٹ	-10.2166
pa	-10.2169
▁کرس	-10.2171
▁صارف	-10.2181
▁اخراج	-10.2181
▁ایندھن	-10.2185
▁سہولیات	-10.2185
▁اسٹریٹجک	-10.2185
▁جامع	-10.2185
▁نایاب	-10.2185
ائٹس	-10.2185
▁75	-10.2188
▁اسٹاپ	-10.2189
▁ڈاؤن	-10.219
▁توڑ	-10.2204
▁پہنچے	-10.2204
▁خان	-10.221
▁گریٹر	-10.221
▁نفسیاتی	-10.2211
▁فیڈ	-10.2215
▁دوڑ	-10.2222
▁بیٹری	-10.2227
▁مڈ	-10.2227
▁ہیلی	-10.224
▁غذائی	-10.2247
▁اضلاع	-10.2254
▁موصول	-10.2254
▁متنوع	-10.2254
▁دفن	-10.2254
▁الیکٹرو	-10.2255
▁1977	-10.2256
کین	-10.226
▁ریپ	-10.2267
▁گواہوں	-10.2286
▁ایکڑ	-10.2295
▁صدارت	-10.2297
▁پیری	-10.2305
کیٹ	-10.2319
▁تھلگ	-10.2323
▁مینوفیکچرنگ	-10.2323
▁کنندہ	-10.2323
▁اخذ	-10.2323
▁سالگرہ	-10.2323
▁گور	-10.2324
▁1948	-10.2326
▁پڑھنے	-10.2327
کوس	-10.2328
▁کوریائی	-10.2329
چھ	-10.2329
▁لیمپ	-10.2331
▁فرانسس	-10.2338
▁ضروریات	-10.2338
▁رکھ	-10.234
ارٹ	-10.2346
5،000	-10.2354
▁میٹا	-10.236
▁اوپری	-10.2362
▁آرکائیو	-10.2372
اگو	-10.2374
▁پاک	-10.2376
▁سڑکوں	-10.2377
▁شیر	-10.238
▁لیو	-10.2381
▁پہاڑ	-10.2386
▁چوتھا	-10.239
▁ضبط	-10.2392
▁مقدمہ	-10.2392
▁اسکرپٹ	-10.2392
▁فرض	-10.2394
ٹھ	-10.2423
ts	-10.2428
▁کہیں	-10.243
▁بکس	-10.2431
پول	-10.2433
▁ورکس	-10.2433
▁اسٹیل	-10.2438
▁پر۔	-10.2441
▁سہ	-10.2452
اکا	-10.2455
▁متاثرہ	-10.2457
▁بیرون	-10.2457
▁قدر	-10.246
▁خوبصورت	-10.2462
▁سلامتی	-10.2462
▁لوہے	-10.2462
▁اسٹوریج	-10.2462
▁انڈیکس	-10.2462
▁نمونے	-10.2465
▁Ma	-10.2469
▁چلاتا	-10.247
نیس	-10.2476
▁مارٹن	-10.2477
▁پسندوں	-10.2477
▁دشمن	-10.248
▁کرو	-10.2481
▁ہوگا۔	-10.2488
▁شاعری	-10.2491
▁ظاہری	-10.2493
▁برآمد	-10.2494
▁ایٹم	-10.2498
▁حامیوں	-10.2503
فین	-10.2509
▁اوک	-10.2519
یوس	-10.2527
▁بیکٹیریل	-10.2533
▁توثیق	-10.2533
▁سیکولر	-10.2533
▁دھو	-10.2533
▁چیپل	-10.2535
▁1993	-10.2535
28	-10.2536
▁جوڑنے	-10.2536
▁ریور	-10.2536
▁1985	-10.2536
▁قدیمہ	-10.2541
ننگ	-10.2553
▁مارنے	-10.2557
▁موسیقار	-10.2567
رڈ	-10.2575
▁اعتراف	-10.2603
▁صوبوں	-10.2603
▁مکینیکل	-10.2603
▁میانمار	-10.2603
▁ہوجاتا	-10.2603
▁تہائی	-10.2603
▁ڈومینیکن	-10.2603
▁کمپیوٹرز	-10.2604
▁بہاؤ	-10.2604
▁اسمتھ	-10.2604
▁سائیڈ	-10.2604
▁مظاہرین	-10.2605
▁جڑ	-10.2606
▁ملازمین	-10.2606
▁اسپیس	-10.2609
▁ناموں	-10.2609
کلی	-10.261
▁نوجوانوں	-10.2611
▁گال	-10.2612
▁زخمی	-10.2629
▁ٹرو	-10.2648
▁چارٹ	-10.2652
▁پس	-10.2658
▁بت	-10.2662
▁پورٹو	-10.2668
▁چڑھ	-10.2671
▁معدوم	-10.2673
▁اشتراک	-10.2675
▁رابطہ	-10.2675
▁اسکائی	-10.2675
ویٹ	-10.2676
▁1976	-10.2677
▁موڑ	-10.2679
▁تفریحی	-10.2691
▁کمپنیاں	-10.2695
▁(16	-10.2697
ایم	-10.2699
▁عراق	-10.2699
ورڈ	-10.2732
94	-10.2735
▁1000	-10.2736
▁نویں	-10.2736
▁متوازی	-10.2747
▁ڈھانچہ	-10.2747
▁پروٹوکول	-10.2747
▁چلتی	-10.2749
▁سومری	-10.2753
یاں	-10.277
▁مسافر	-10.2782
ian	-10.2789
▁اولمپکس	-10.2792
▁اکاؤنٹ	-10.2798
یلا	-10.2801
▁بھیج	-10.2801
▁ریلی	-10.2805
▁انتقال	-10.2819
▁ظہور	-10.2819
▁غریب	-10.2819
▁متوجہ	-10.2819
▁دہشت	-10.2819
▁ویکیوم	-10.2819
▁پنجاب	-10.2819
▁اسپورٹس	-10.2819
▁خام	-10.2821
▁اسکیم	-10.2822
▁ایڈیٹر	-10.2833
▁باپ	-10.2835
▁کارڈ	-10.2865
▁ماریا	-10.2866
▁ایلن	-10.2872
▁ججوں	-10.2873
▁مثالی	-10.2875
▁ویک	-10.2876
▁کانگ	-10.2883
▁خلا	-10.2885
▁افسانوی	-10.2892
▁تشدد	-10.2892
▁نمیبیا	-10.2892
▁خزاں	-10.2892
▁ہڈی	-10.2896
▁خاندانی	-10.2899
▁تبدیلیاں	-10.2905
ائزڈ	-10.2909
یئن	-10.2913
▁تاجروں	-10.2922
مبر	-10.2923
بری	-10.2926
▁سائ	-10.2928
▁لی۔	-10.2953
▁انجینئر	-10.2956
▁دفاتر	-10.2966
▁ریڑھ	-10.2966
▁سلطان	-10.2966
▁محققین	-10.2966
▁مدمقابل	-10.2966
▁مینجمنٹ	-10.2966
▁شریک	-10.2966
▁قومیت	-10.2966
▁1971	-10.2968
▁گاؤں	-10.2972
▁بازو	-10.2998
▁ٹوٹ	-10.3004
کے	-10.3006
▁مول	-10.3012
▁پادریوں	-10.3016
▁دائر	-10.3024
▁فاموں	-10.3035
▁اونچا	-10.3038
é	-10.304
▁الکاہل	-10.304
▁تاخیر	-10.304
▁تلفظ	-10.304
▁پیدل	-10.304
▁منایا	-10.304
وکی	-10.3042
▁نامزدگی	-10.3043
▁سمجھنے	-10.3043
▁جوڑے	-10.3046
▁باؤل	-10.3047
▁آرام	-10.3056
▁نازی	-10.3067
ایس	-10.3068
▁پرجاتی	-10.3078
ho	-10.3084
▁ہائیڈرو	-10.3085
ka	-10.3089
▁مضبوطی	-10.3089
لام	-10.3109
▁اقدام	-10.311
▁ایتھلیٹک	-10.3114
▁ایسٹونین	-10.3115
▁جائیں	-10.3115
▁کبھار	-10.3115
▁چھٹے	-10.3115
▁ہنوور	-10.3115
▁تکمیل	-10.3115
▁کاشت	-10.3116
▁پہلوان	-10.3122
po	-10.3123
▁سیکسن	-10.3127
▁انڈے	-10.3131
▁کھیلنے	-10.3145
▁کنی	-10.3146
▁ارب	-10.3156
mo	-10.3159
▁سرپرست	-10.316
▁£	-10.3169
ہم	-10.3172
23	-10.3179
▁سور	-10.3181
ریڈ	-10.3187
ː	-10.319
▁اقدار	-10.319
▁علماء	-10.319
▁تناؤ	-10.319
▁صاف	-10.319
▁مرتب	-10.319
▁پہلوؤں	-10.3191
▁ٹار	-10.3193
▁فرسٹ	-10.3199
▁بنتا	-10.3199
▁مرکبات	-10.3202
▁چاندی	-10.3211
▁شاعر	-10.3234
▁لڑ	-10.324
▁بگ	-10.3243
ٹور	-10.3245
ونک	-10.3247
ə	-10.3255
▁اشنکٹبندیی	-10.3265
▁ضوابط	-10.3265
▁قدامت	-10.3265
▁متضاد	-10.3265
▁1944	-10.3265
▁ایوسینا	-10.3265
▁انگور	-10.3266
▁تفصیلات	-10.3267
▁کاپیاں	-10.327
ارک	-10.3272
▁جنگلات	-10.3276
▁فریق	-10.3279
میڈی	-10.3285
▁سکھ	-10.3285
ران	-10.3288
▁ڈومین	-10.3294
▁جینوں	-10.3296
▁اگ	-10.3328
▁ایمان	-10.333
▁الیکٹران	-10.3331
▁ثانوی	-10.3342
▁زبردست	-10.3342
▁معطل	-10.3342
▁اسٹائل	-10.3342
▁رواج	-10.3343
▁سینا	-10.3346
▁نہاد	-10.3348
▁مدار	-10.3349
▁پریشانی	-10.3362
▁صف	-10.3365
▁نقصانات	-10.3368
▁جماعت	-10.3374
▁مسلمان	-10.3391
وئی	-10.3394
▁عدالتوں	-10.3401
man	-10.341
▁بنایا۔	-10.341
ge	-10.3416
ینو	-10.3416
▁آلودگی	-10.3419
▁مذمت	-10.3419
▁کامکاسٹ	-10.3419
▁قطب	-10.3419
▁مونٹانا	-10.3419
▁پیسہ	-10.3419
▁باسکٹ	-10.342
▁طول	-10.342
▁سچائی	-10.342
▁دوچار	-10.3422
▁1917	-10.3423
▁ذہن	-10.3444
▁سوار	-10.3449
▁اٹھا	-10.3449
▁ٹام	-10.3449
▁رنگوں	-10.3449
گس	-10.346
▁سولو	-10.3466
▁ٹائپ	-10.3468
▁دیواروں	-10.3473
یں۔	-10.3474
▁خدشات	-10.3496
▁راغب	-10.3496
▁مرحلہ	-10.3496
▁منسوب	-10.3496
▁وعدہ	-10.3496
▁یونیکوڈ	-10.3496
▁The	-10.3497
▁ساموا	-10.3499
▁جوڑتا	-10.35
▁سیاحوں	-10.3505
▁نوبل	-10.3506
▁ماؤنٹین	-10.3508
▁عدالتی	-10.3513
▁پرستوں	-10.3514
▁قیدیوں	-10.3514
▁کرداروں	-10.3516
▁جونیئر	-10.3519
▁پڑ	-10.3525
▁اخبارات	-10.3526
ڈیم	-10.3538
▁ڈیک	-10.3562
▁ایڈجسٹ	-10.3574
▁عقیدہ	-10.3574
▁مجسمہ	-10.3574
▁میساچوسٹس	-10.3574
▁پارلیمانی	-10.3574
▁بٹومین	-10.3574
▁شدت	-10.3574
▁آزادانہ	-10.3579
▁شق	-10.358
▁ہٹانے	-10.3585
▁جیانگ	-10.3598
▁جنگل	-10.3605
▁توپ	-10.3608
▁گواہ	-10.3617
▁ہند	-10.3622
▁سیمی	-10.3624
▁فوجوں	-10.3624
).	-10.3627
▁44	-10.363
ٹرز	-10.3637
▁بدعت	-10.3653
▁دھمکی	-10.3653
▁عمودی	-10.3653
▁وغیرہ	-10.3653
▁ضمانت	-10.3653
▁اموات	-10.3653
▁کمرے	-10.3653
tu	-10.3656
▁فیس	-10.3661
▁کنٹری	-10.367
▁1900	-10.367
▁الہی	-10.367
he	-10.3673
▁جگہوں	-10.368
تن	-10.3691
▁فوڈ	-10.3706
▁معمول	-10.3707
اوی	-10.3712
▁وول	-10.3713
مار	-10.3725
▁تعارف	-10.3732
▁متوقع	-10.3732
▁یونائیٹڈ	-10.3732
▁دھن	-10.3732
▁جارہا	-10.3732
▁ویکسین	-10.3732
▁1972	-10.3735
▁1964	-10.3737
▁زمینوں	-10.3741
▁ویلی	-10.3744
▁اداکار	-10.3746
وار	-10.3747
▁یہودیت	-10.3771
▁نیپال	-10.3777
▁انجن	-10.3793
▁بوس	-10.3799
▁دانوں	-10.3808
▁تحریر	-10.381
▁مربوط	-10.3812
▁موبائل	-10.3812
متوفی	-10.3812
▁خلیات	-10.3813
▁سوازیلینڈ	-10.3813
▁1967	-10.3815
▁فلمیں	-10.3815
▁آئلینڈ	-10.3817
▁اتنی	-10.3817
▁سنگ	-10.3817
▁1918	-10.3818
▁ہیو	-10.3821
▁بھرتی	-10.3838
▁برون	-10.3838
ٹیس	-10.3842
▁اپنانے	-10.3844
▁گریز	-10.3844
▁افتتاحی	-10.3845
▁ساتھی	-10.3846
▁گاڑی	-10.3854
▁قید	-10.3866
▁آئس	-10.3866
▁ہاتھوں	-10.3873
▁جمہوری	-10.3876
یلو	-10.3882
▁تہجی	-10.3893
▁فلسفے	-10.3893
▁کمپلیکس	-10.3893
▁کھپت	-10.3893
▁دمہ	-10.3894
▁ٹرانسپورٹ	-10.3894
▁سزائے	-10.3894
▁کرسٹل	-10.3895
▁جلتا	-10.3895
▁میونسپلٹی	-10.3896
▁میجر	-10.3897
▁سوائے	-10.3897
▁1978	-10.3897
▁غذائیت	-10.3903
مثال	-10.391
▁رائن	-10.3918
▁مائ	-10.393
▁بیوی	-10.3933
▁آوازوں	-10.3956
▁منزل	-10.3966
▁اخلاقی	-10.397
▁انٹرٹینمنٹ	-10.3974
▁اوسطاً	-10.3974
▁ایکسپلورر	-10.3974
▁مذاہب	-10.3974
▁ڈرامائی	-10.3974
▁گراؤنڈ	-10.3974
▁1961	-10.3974
▁دسویں	-10.3974
▁پیپلز	-10.3974
▁آرتھر	-10.3975
▁تائیوان	-10.3975
▁حراستی	-10.3981
▁ایسٹر	-10.3996
▁موڈ	-10.3999
انس	-10.4002
ck	-10.4004
▁انڈو	-10.4008
▁آئل	-10.4023
▁صلیبی	-10.4051
▁افعال	-10.4056
▁باقاعدگی	-10.4056
▁مقدمات	-10.4056
▁ڈویلپمنٹ	-10.4056
▁ہوجائے	-10.4056
▁کوانٹم	-10.4057
▁پمپ	-10.4057
▁روانہ	-10.4059
▁انجیل	-10.406
▁رکنیت	-10.4062
▁ایلی	-10.4076
▁ہوگی۔	-10.4076
▁اداکاری	-10.4083
پنگ	-10.4085
موس	-10.4093
▁ینگ	-10.4096
▁گولڈ	-10.41
ir	-10.4103
▁سفارت	-10.4109
▁دکھا	-10.4128
راس	-10.4129
▁بھاگ	-10.4135
▁ارادہ	-10.4139
▁دنوں	-10.414
▁فلسفیانہ	-10.414
▁معدنیات	-10.414
▁1984	-10.4142
▁لڑنے	-10.4143
▁ہیلتھ	-10.4144
▁میموریل	-10.4152
▁پہنچایا	-10.4157
▁کوریج	-10.4161
▁بیسن	-10.4166
▁ٹیسٹنگ	-10.4166
▁جانسن	-10.4179
ڈے	-10.4182
اسی	-10.4186
دیکھیں	-10.419
▁پہچان	-10.4209
▁تھیوری	-10.4219
ولین	-10.4219
▁قلعے	-10.4222
▁مچھلی	-10.4222
▁گہری	-10.4222
▁یکساں	-10.4223
▁شیڈول	-10.4224
▁اسپیڈ	-10.4224
▁روحانی	-10.4225
▁کشتی	-10.423
▁160	-10.4242
▁گیری	-10.4243
▁البمز	-10.4243
رگ	-10.4248
▁ڈک	-10.4267
▁تعلیمات	-10.427
▁سلطنتوں	-10.4272
▁400	-10.4273
▁سرے	-10.428
▁بصری	-10.4306
▁نمونہ	-10.4306
▁مینیجر	-10.4306
▁خلیوں	-10.4306
▁سینئر	-10.4307
▁دریاؤں	-10.431
▁1986	-10.431
▁1973	-10.4311
▁کھلے	-10.4312
▁رائ	-10.432
▁الزامات	-10.4321
▁عنوانات	-10.4321
▁رکھی۔	-10.4327
▁ویانا	-10.4331
▁ٹیبل	-10.4338
ation	-10.434
▁کیبس	-10.4341
▁اسٹیج	-10.4344
▁ٹیکنالوجیز	-10.4348
▁ہولڈ	-10.435
ine	-10.4371
یٹی	-10.4379
▁1966	-10.4391
▁تدفین	-10.4391
▁دستبردار	-10.4391
▁دکان	-10.4391
▁سوراخ	-10.4391
▁گانوں	-10.4392
▁کوچ	-10.4395
▁بچانے	-10.4396
▁پیک	-10.4396
▁سکے	-10.4396
▁ڈیلی	-10.4397
▁چلائی	-10.4399
▁فرانسسکو	-10.44
▁پریڈ	-10.4404
▁جارجیا	-10.442
▁وینس	-10.4425
▁موسیقاروں	-10.4435
▁سائنسدانوں	-10.4438
▁ذہنی	-10.4449
▁ایوی	-10.4459
ba	-10.4462
▁فرم	-10.4464
▁سپیکٹر	-10.4467
▁عرض	-10.4477
▁نقاب	-10.4477
▁کھڑا	-10.4477
▁نکولس	-10.4477
▁کینساس	-10.4477
▁جوڑ	-10.4477
▁برٹش	-10.4477
▁واقفیت	-10.4478
▁مماثلت	-10.448
▁ریکو	-10.4481
▁علی	-10.4481
▁لینڈنگ	-10.4483
▁روسیوں	-10.4485
▁لائنز	-10.4488
▁ہاٹ	-10.4491
▁وقفے	-10.4494
گوٹ	-10.4496
▁قرضے	-10.4498
▁رہائی	-10.4506
▁کارڈینلز	-10.4507
▁تھری	-10.4517
لیم	-10.4538
▁آبادیوں	-10.4545
رج	-10.455
ٹکس	-10.4553
▁غذا	-10.4561
▁لمبا	-10.4561
Q	-10.4563
▁خطرناک	-10.4563
▁پروسیسنگ	-10.4563
▁میکسیکن	-10.4563
▁بچپن	-10.4563
▁جرسی	-10.4564
▁سختی	-10.4566
▁1914	-10.4567
▁تکلیف	-10.4577
▁نہر	-10.458
▁ڈری	-10.4592
▁چیزوں	-10.4593
▁فیئر	-10.4595
▁ہالی	-10.4611
▁سمجھ	-10.4613
▁معمار	-10.4613
▁عہدیدار	-10.4613
▁پیلی	-10.4616
ad	-10.4627
▁آرچ	-10.4632
tic	-10.4642
▁تزئین	-10.465
▁نژاد	-10.465
▁فیکلٹی	-10.465
▁بارہویں	-10.465
یش	-10.465
▁ٹھوس	-10.465
▁ٹرانسمیٹر	-10.465
▁پروسیا	-10.465
▁گرامر	-10.4652
▁میرین	-10.4676
▁مالا	-10.4684
ڈوک	-10.4687
ut	-10.4698
▁بستی	-10.4709
▁قدم	-10.4712
▁پریشان	-10.4715
ent	-10.473
▁آکسائڈ	-10.4737
▁تصادم	-10.4737
▁صبح	-10.4737
▁ملحقہ	-10.4737
▁نشاۃ	-10.4737
▁آپریٹنگ	-10.4737
▁بتائیں	-10.4737
▁یوآن	-10.4737
▁برانڈ	-10.4738
▁بیلٹ	-10.4738
▁انفرا	-10.4739
▁پریمیر	-10.4739
▁بول	-10.4739
▁عمری	-10.474
▁1981	-10.4741
▁ثانیہ	-10.4744
▁1860	-10.4747
دھا	-10.4753
▁ایری	-10.4758
▁دیں۔	-10.4762
▁فرقہ	-10.4773
og	-10.4778
▁لیتے	-10.4779
▁دستاویزی	-10.4779
▁فنون	-10.4787
▁کاسٹ	-10.479
▁گڈ	-10.479
یان	-10.4793
▁فنکشن	-10.48
▁پینے	-10.4801
▁ہارٹ	-10.4804
▁لیٹر	-10.4808
▁پالیسیوں	-10.4812
▁سار	-10.4817
▁52	-10.4817
▁سرنگ	-10.4819
▁گارڈن	-10.4819
ڈیا	-10.4824
,6	-10.4824
▁اوقیانوس	-10.4826
▁دعوت	-10.4826
▁دھماکے	-10.4826
▁مراحل	-10.4826
▁نمائندوں	-10.4826
▁BeiDou	-10.4826
▁پائلٹ	-10.4826
▁انٹرفیس	-10.4826
▁1975	-10.483
▁واٹ	-10.4833
▁ایج	-10.4842
▁پڑتال	-10.4845
یسس	-10.4852
▁موضوعات	-10.4862
یچ	-10.4882
▁ڈیس	-10.4898
▁افسر	-10.4911
▁احترام	-10.4915
▁حصول	-10.4915
▁نشوونما	-10.4915
▁of	-10.4917
▁فارس	-10.4917
▁آفیسر	-10.4917
▁1982	-10.4918
▁KU	-10.4942
ie	-10.4943
▁پیڈ	-10.4949
▁اسٹوڈیوز	-10.495
▁نشست	-10.496
▁لیپ	-10.4962
سکا	-10.4965
▁تھیم	-10.4971
▁موٹرز	-10.4973
▁درختوں	-10.4981
▁بچت	-10.4996
ء	-10.5
▁اسکندریہ	-10.5005
▁بظاہر	-10.5005
▁تھورنگیا	-10.5005
▁چائلڈ	-10.5005
▁یروشلم	-10.5005
▁حامل	-10.5005
▁تھرمل	-10.5006
▁پسندیدہ	-10.5007
▁La	-10.5008
▁واک	-10.5009
▁مالکان	-10.5018
▁آور	-10.503
نٹس	-10.5031
▁معاشیات	-10.5033
▁فنڈز	-10.5038
▁نوٹر	-10.5039
▁علمی	-10.5048
▁رہے۔	-10.5059
▁پیر	-10.5063
▁لیتا	-10.5078
فون	-10.5082
▁ایجنسیوں	-10.5088
میٹر	-10.5089
پلی	-10.509
▁اعتراض	-10.5092
▁نارمن	-10.5094
▁حیرت	-10.5096
▁خیراتی	-10.5096
▁صحافی	-10.5096
▁طیارہ	-10.5096
▁غائب	-10.5096
▁ناقدین	-10.5096
▁ناقص	-10.5096
▁ٹرانزٹ	-10.5096
bi	-10.5098
▁کمشنر	-10.5098
▁وسطیٰ	-10.5098
▁خیز	-10.5099
▁1963	-10.5099
▁1958	-10.51
▁بازی	-10.51
da	-10.5104
▁لڑی	-10.5105
▁فیفا	-10.5106
پولس	-10.5117
ٹوک	-10.5129
▁Sa	-10.5131
▁گار	-10.5132
انٹ	-10.5133
▁صوتیات	-10.5136
چین	-10.5137
▁گرے	-10.5143
ly	-10.5161
▁چاند	-10.5163
▁ڈیوائس	-10.5168
▁سانس	-10.5173
▁اساتذہ	-10.5188
▁رسومات	-10.5188
▁فوائد	-10.5188
▁محافظ	-10.5188
▁مذاکرات	-10.5188
▁مطلق	-10.5188
▁موقف	-10.5188
▁سرزمین	-10.5188
▁گہرائی	-10.5189
▁1983	-10.5191
▁1937	-10.5192
▁1953	-10.5192
▁1968	-10.5193
▁ٹانگ	-10.5199
ائر	-10.52
08	-10.5203
▁ویو	-10.5204
▁اتار	-10.5205
▁فضائیہ	-10.5212
▁پوائنٹس	-10.5226
▁آئ	-10.523
▁بندرگاہوں	-10.5245
▁(6	-10.5245
نیو	-10.5246
بار	-10.5247
▁پروگرامنگ	-10.5258
▁رجسٹر	-10.527
▁ارسطو	-10.5281
▁انتھروپولوجی	-10.5281
▁قرارداد	-10.5281
▁مملکت	-10.5281
▁موافقت	-10.5281
▁زمرے	-10.5281
▁ٹرافی	-10.5281
do	-10.5281
▁کابینہ	-10.5281
اخ	-10.5281
بول	-10.5281
▁کرنسی	-10.5281
▁انکوڈنگ	-10.5284
▁بھیجے	-10.529
▁سپیکٹرم	-10.5291
اڈا	-10.5294
بیس	-10.5301
ae	-10.5301
ولر	-10.5303
▁اولڈ	-10.5304
▁سنبھالا	-10.5312
▁تاجر	-10.5317
▁کرنٹ	-10.5318
▁پڑھا	-10.5319
ran	-10.5326
عام	-10.5332
▁روکا	-10.5337
▁ڈیٹ	-10.5339
▁مارے	-10.5339
یعنی	-10.534
▁کریں۔	-10.5359
▁بائی	-10.5361
ستان	-10.5371
▁انڈرگریجویٹ	-10.5374
▁راجستھان	-10.5374
▁صوبائی	-10.5374
▁معاشروں	-10.5374
▁مقدمے	-10.5374
▁گھنٹہ	-10.5374
▁فلسطین	-10.5374
▁لغت	-10.5374
▁برسوں	-10.5374
▁ادوار	-10.5374
▁آرکیٹیکچرل	-10.5375
▁کنیکٹر	-10.5375
▁موریس	-10.5375
▁مطلوبہ	-10.5376
▁لکھتے	-10.5376
▁گزار	-10.5378
▁100،000	-10.5387
▁ویڈیوز	-10.539
▁مہمان	-10.5396
لوں	-10.5409
▁اناج	-10.541
لیب	-10.5439
▁کورس	-10.5442
▁کتابیں	-10.5451
▁مارکس	-10.5452
▁ایجوکیشن	-10.5468
▁جیفرسن	-10.5468
▁رومانٹک	-10.5468
▁ریفرنڈم	-10.5468
▁مانچسٹر	-10.5468
▁مفید	-10.5468
▁جرنل	-10.5468
ڈنگ	-10.5469
▁انگیز	-10.5469
▁نامیاتی	-10.547
▁سپورٹ	-10.5471
▁جیکسن	-10.5474
▁نشستیں	-10.5477
ya	-10.5482
▁پیلس	-10.5493
▁عہد	-10.5511
-10	-10.5516
▁پلا	-10.5517
▁شور	-10.5522
▁کروز	-10.5536
▁بنتی	-10.5553
▁(15	-10.5554
الا	-10.556
de	-10.5561
▁مجرم	-10.5563
▁افغانستان	-10.5564
▁انعقاد	-10.5564
▁تشویش	-10.5564
▁وکالت	-10.5564
▁شعور	-10.5564
▁شخصیات	-10.5564
▁اسٹالن	-10.5564
▁قبر	-10.5565
▁الفریڈ	-10.5565
▁معاون	-10.5565
▁1922	-10.5568
▁نوازا	-10.5569
ورٹ	-10.5569
▁بینکوں	-10.5576
▁1880	-10.5578
▁سننے	-10.5584
▁وائرس	-10.5584
▁راہبوں	-10.559
▁سمر	-10.5603
▁کردی۔	-10.5603
tr	-10.5613
▁ایجنٹ	-10.563
▁شوز	-10.5639
فارم	-10.5644
یڈس	-10.5647
▁ہول	-10.5655
▁حساس	-10.5658
▁تفہیم	-10.566
▁مقابلوں	-10.566
▁کنیکٹیکٹ	-10.566
▁1952	-10.566
▁حجم	-10.566
▁قائل	-10.566
▁شاندار	-10.566
▁خریدنے	-10.5662
▁طب	-10.5662
05	-10.5666
▁ایرینا	-10.5667
▁بالٹک	-10.567
▁رہی۔	-10.5678
▁ہور	-10.5682
▁ریت	-10.5686
▁والٹ	-10.5689
▁سفارتی	-10.5695
▁یونیورسٹیاں	-10.5696
اوا	-10.5698
▁سون	-10.57
nt	-10.5711
گیٹ	-10.572
▁پابندیوں	-10.5722
وچ	-10.5726
▁مسیحی	-10.5732
لسٹ	-10.5744
▁بنی	-10.5744
▁وائر	-10.5745
▁قوموں	-10.575
α	-10.5757
▁خطوط	-10.5757
▁فعل	-10.5757
▁مورخ	-10.5758
▁اسسٹنٹ	-10.5758
▁مونیکا	-10.5758
▁ہینری	-10.5758
▁all	-10.5759
▁ہاربر	-10.5765
▁ریف	-10.5772
ve	-10.5774
▁نکلا	-10.5777
نگس	-10.5779
▁پیلے	-10.578
▁مزدوروں	-10.5783
▁راستوں	-10.5783
▁رے	-10.5786
کٹو	-10.5795
▁بٹن	-10.5798
ab	-10.5814
▁فیکٹری	-10.5819
▁ویز	-10.5825
ٹڈ	-10.5832
▁ڈسکس	-10.5842
▁نیورو	-10.5843
پری	-10.5844
▁لفظی	-10.585
▁سوشل	-10.5851
▁الذکر	-10.5855
▁تھوڑا	-10.5855
▁دروازے	-10.5855
▁لطف	-10.5855
▁مؤخر	-10.5855
▁محاصرے	-10.5855
▁ٹورنامنٹ	-10.5855
▁سامورائی	-10.5855
▁طبقات	-10.5855
▁سنیما	-10.5857
▁فیری	-10.5858
▁گریمی	-10.5858
کور	-10.5859
▁1910	-10.586
▁صلاحیتوں	-10.5861
▁اندراج	-10.5861
▁کوششیں	-10.5861
▁صلیب	-10.5861
▁سیکنڈری	-10.5865
▁کشش	-10.5869
▁حاضری	-10.5875
▁دشمنی	-10.5877
▁فائرنگ	-10.5879
▁بڑھتا	-10.5879
▁تھائی	-10.5883
▁لانے	-10.5898
em	-10.5903
ell	-10.5906
▁آسمان	-10.5932
▁10،000	-10.5938
▁لکھ	-10.5944
شل	-10.5944
یکو	-10.5946
▁اہل	-10.5952
▁ظلم	-10.5954
▁قلعہ	-10.5954
▁براڈوے	-10.5954
▁جدت	-10.5954
▁نمونوں	-10.5954
▁دربار	-10.5954
▁ورجل	-10.5954
▁گیند	-10.5955
▁کوارٹر	-10.5956
▁صفائی	-10.5958
▁بھیجنے	-10.596
▁دیکھتے	-10.5962
ویر	-10.5963
کلاسیکل	-10.5969
▁رالی	-10.5977
▁ایٹن	-10.599
▁والٹر	-10.5991
▁جانشینی	-10.5993
▁ریو	-10.5994
▁آربر	-10.6005
▁ہڈیوں	-10.6005
▁گلو	-10.601
تھین	-10.6016
ولس	-10.6018
im	-10.604
▁گلاس	-10.6045
▁میونسپل	-10.605
▁برصغیر	-10.6054
▁سکاٹش	-10.6054
▁شائقین	-10.6054
▁پیشرفت	-10.6054
▁توازن	-10.6054
▁چمک	-10.6054
▁چوتھائی	-10.6057
▁سہرا	-10.6059
▁سیلاب	-10.6061
▁ٹریل	-10.6062
▁مہا	-10.6063
▁رکھنا	-10.6064
▁جڑیں	-10.6066
▁ٹرائ	-10.6066
▁گلا	-10.6076
کول	-10.608
▁تنگ	-10.6084
▁جولین	-10.6085
▁پرانا	-10.6085
▁سینیٹر	-10.6088
▁کالجوں	-10.6094
▁ایکشن	-10.6094
▁میسن	-10.6101
▁کریم	-10.6104
▁بلند	-10.6108
▁بندوق	-10.611
▁کروائی	-10.6123
▁زبانی	-10.6127
▁برادریوں	-10.6132
▁لیڈر	-10.6143
▁اقتصادی	-10.6155
▁امیگریشن	-10.6155
▁براؤزر	-10.6155
▁بپتسمہ	-10.6155
▁قونصل	-10.6155
▁مسابقتی	-10.6155
▁کھڑی	-10.6155
▁ہدایات	-10.6155
▁نیویگیشن	-10.6155
▁پٹھوں	-10.6155
▁اتوار	-10.6155
▁1956	-10.616
▁اینجلس	-10.6162
▁خبر	-10.6162
▁گرانٹ	-10.6164
▁علموں	-10.6167
▁گلیڈ	-10.6169
سپر	-10.6171
▁منہ	-10.6182
نگٹن	-10.6189
یٹک	-10.6191
che	-10.6196
▁سیپ	-10.6197
▁تحریروں	-10.6201
▁انڈین	-10.6231
▁ڈھک	-10.625
راڈ	-10.6254
▁مادی	-10.6255
▁الکحل	-10.6257
▁برآں	-10.6257
▁قارئین	-10.6257
▁پرتشدد	-10.6257
▁گیارہویں	-10.6257
▁1943	-10.6257
▁میکانزم	-10.6257
▁اسپتال	-10.6257
▁پائیدار	-10.626
▁دلیل	-10.6261
▁1936	-10.6261
▁1876	-10.6264
▁نکالنے	-10.6265
▁the	-10.6272
▁مشی	-10.6274
▁پہنا	-10.6276
جین	-10.6278
▁برڈ	-10.6282
▁سرپرستی	-10.6298
وما	-10.6302
▁(10	-10.6304
▁لاما	-10.6306
▁امور	-10.631
▁پھولوں	-10.6317
تو	-10.632
▁وفادار	-10.6323
اکس	-10.6329
▁54	-10.6331
▁باغ	-10.6332
▁ملے	-10.6342
▁مثالوں	-10.6349
▁اشارے	-10.636
▁اکٹھا	-10.636
▁برداشت	-10.636
▁دھوکہ	-10.636
▁مہایان	-10.6361
▁چلے	-10.6368
▁1.5	-10.6373
▁نیٹو	-10.6391
▁اوپن	-10.64
▁داریوں	-10.6409
▁ٹیگ	-10.6413
▁ڈیکو	-10.6414
▁پلیس	-10.6424
شپ	-10.6431
▁منطق	-10.6439
900	-10.6446
▁چپ	-10.6449
▁پچ	-10.6452
▁اثاثوں	-10.6464
▁ایریزونا	-10.6464
▁تابع	-10.6464
▁تاجپوشی	-10.6464
▁سینکڑوں	-10.6464
▁لائبیریا	-10.6464
▁مغل	-10.6464
▁ڈپٹی	-10.6464
▁بکنگھم	-10.6464
▁چیمبر	-10.6466
▁ہڈسن	-10.6466
▁مینوفیکچررز	-10.6466
▁IV	-10.6468
▁1955	-10.6469
▁ہموار	-10.6469
▁چل	-10.6472
▁روزگاری	-10.6474
▁رجسٹرڈ	-10.6474
▁کھولی	-10.6475
▁پینٹنگز	-10.6478
▁مانگ	-10.6478
▁مسٹر	-10.6488
▁کورسز	-10.6489
یئم	-10.6511
▁داخلے	-10.6512
▁مہمات	-10.6513
▁Ch	-10.6515
▁رام	-10.6515
ریز	-10.6524
▁گز	-10.6524
▁فلور	-10.6543
▁چن	-10.6543
▁نامے	-10.656
▁کھینچ	-10.6565
ِ	-10.6569
▁اچھے	-10.6569
▁رقبہ	-10.6569
▁علوم	-10.6569
▁متفق	-10.6569
▁کروموسوم	-10.6569
▁اچھا	-10.657
▁براڈ	-10.6572
▁پبوں	-10.6575
▁1965	-10.6575
▁گریگوری	-10.6577
▁مونٹینی	-10.6578
▁دائرے	-10.658
▁اسکین	-10.6581
▁ترقیاتی	-10.6584
▁نیدرلینڈز	-10.6587
▁بروک	-10.6588
▁داروں	-10.659
▁ٹریننگ	-10.6595
▁گرنے	-10.6599
▁لائٹنگ	-10.6602
▁فرقے	-10.6605
▁الیکٹرانکس	-10.6608
▁42	-10.6611
▁امدادی	-10.6625
▁گردی	-10.6627
▁سائبر	-10.6631
فیلڈ	-10.6631
ڈٹ	-10.6643
▁سونگ	-10.665
▁سطحوں	-10.6655
▁پیغام	-10.6671
▁کوڈنگ	-10.6673
ث	-10.6675
▁1800	-10.6675
ν	-10.6676
XNUMX	-10.6676
▁1942	-10.6676
▁اسٹراسبرگ	-10.6676
▁تاجکستان	-10.6676
▁تنخواہ	-10.6676
▁عبرانی	-10.6676
▁ماخذ	-10.6676
▁یوراگوئے	-10.6676
▁آبادکاری	-10.6676
▁ڈزنی	-10.6676
▁مرکری	-10.6676
▁فرینکلن	-10.6677
▁سٹریٹ	-10.6677
▁نادر	-10.6678
ھو	-10.6679
▁برفانی	-10.6679
▁خطاب	-10.668
▁1946	-10.668
▁حسی	-10.6685
▁اتر	-10.6686
▁رہنمائی	-10.6687
▁1870	-10.6687
▁جوڑا	-10.6692
▁کھیلتے	-10.6702
▁کانفرنسنگ	-10.6703
▁الب	-10.6705
▁میکس	-10.6709
▁کھا	-10.6711
▁ہوکر	-10.6712
▁جاز	-10.6722
ou	-10.6723
▁نظاموں	-10.6725
▁جلا	-10.6734
▁کالم	-10.6734
دین	-10.6751
▁فنکار	-10.6753
▁میز	-10.6764
▁سائنسز	-10.6766
▁ہینڈ	-10.6772
▁میگ	-10.6782
▁پکڑ	-10.6782
▁پھینک	-10.6783
▁افزائش	-10.6783
▁تعامل	-10.6783
▁مقدونیہ	-10.6783
▁منصفانہ	-10.6783
▁1931	-10.6783
▁نچلی	-10.6783
▁گٹار	-10.6783
▁لبنان	-10.6783
▁ساتھیوں	-10.6786
▁1938	-10.6788
▁سنٹرل	-10.6788
▁فنڈنگ	-10.6805
▁بڑھنے	-10.6809
▁ہوں۔	-10.6837
کوٹ	-10.6842
▁اوپ	-10.6847
▁برطرف	-10.6857
▁شان	-10.6873
▁انڈونیشیا	-10.6892
▁دیوالیہ	-10.6892
▁زلزلہ	-10.6892
▁معاملہ	-10.6892
▁ینالاگ	-10.6892
▁سیارے	-10.6892
▁نمو	-10.6894
▁1957	-10.6896
▁آرٹیکل	-10.6897
▁دیکھا۔	-10.6897
▁کھولنے	-10.6899
▁ترکیب	-10.6904
▁آرگن	-10.6918
▁چھپا	-10.6921
یئرز	-10.6935
▁جنگجو	-10.6945
کم	-10.6955
▁آئے۔	-10.6957
بال	-10.6959
نوٹ	-10.6961
▁Pa	-10.6977
▁گینگ	-10.6984
ant	-10.6985
سپین	-10.6991
▁نان	-10.6993
▁باری	-10.6996
سیٹ	-10.7
▁دشواری	-10.7002
▁صحارا	-10.7002
▁ٹرانزسٹر	-10.7002
▁یوئیفا	-10.7002
▁1954	-10.7002
▁انچارج	-10.7002
▁1861	-10.7002
▁انگوٹی	-10.7002
▁سکھایا	-10.7003
▁نیند	-10.7003
▁اہلیہ	-10.7003
▁بدترین	-10.7003
▁فضلہ	-10.7004
کوف	-10.7005
▁1962	-10.7006
▁کوئین	-10.7007
▁1912	-10.7008
▁کنکشن	-10.701
▁فائنلسٹ	-10.7015
▁لڑا	-10.7018
▁مریضوں	-10.7021
▁یورپیوں	-10.7027
que	-10.703
▁گردش	-10.7036
▁باروک	-10.7037
▁ہیری	-10.7039
▁وولٹ	-10.7039
▁خاصیت	-10.7046
▁گاڑیوں	-10.7052
▁صنعتوں	-10.7058
ers	-10.7071
ag	-10.7074
نوس	-10.7076
▁ریورس	-10.7084
عی	-10.7094
▁پہنچی	-10.7099
▁ثانی	-10.7104
▁محرک	-10.7109
▁آکسفورڈ	-10.7113
▁ارتقائی	-10.7113
▁خواندگی	-10.7113
▁متعدی	-10.7113
▁ڈھال	-10.7113
▁کنڈکٹر	-10.7113
▁ہوجاتی	-10.7113
▁اسپیکر	-10.7113
▁قبرستان	-10.7113
▁نیویارک	-10.7113
4،000	-10.7114
▁VII	-10.7117
▁اعصابی	-10.7117
▁کینسر	-10.7119
▁رسل	-10.7126
▁مخالفین	-10.7128
▁1840	-10.7131
▁تپ	-10.7132
+	-10.7132
▁پرنٹنگ	-10.7136
ub	-10.7141
▁آپریشنل	-10.7143
,0	-10.7151
▁ایٹمی	-10.7159
وسس	-10.7169
▁راکٹ	-10.7178
بیل	-10.7187
▁شیٹ	-10.7192
▁سیکس	-10.7194
▁عقل	-10.7197
▁ابو	-10.7198
▁تفریح	-10.72
▁ہاؤسنگ	-10.7215
▁ٹرن	-10.7218
▁مدافعتی	-10.7225
▁والنسین	-10.7225
▁گھوڑے	-10.7225
▁ہڑتال	-10.7225
▁الپائن	-10.7225
▁بیشتر	-10.7225
▁مادے	-10.7225
▁اسٹیفن	-10.7225
▁بادل	-10.7226
▁محور	-10.7226
▁فنکارانہ	-10.7226
▁ہلکے	-10.7227
▁پرچم	-10.7228
▁خوف	-10.7229
▁بیساو	-10.723
▁ریک	-10.7232
میگنیٹ	-10.7235
▁ٹیلر	-10.7244
▁میو	-10.7248
▁فرار	-10.7252
▁کھلی	-10.7252
خاص	-10.7259
▁بستیوں	-10.7273
ot	-10.7285
جسے	-10.7302
▁بدنام	-10.7314
▁زیڈ	-10.7314
▁لائنیں	-10.7322
▁گراف	-10.7324
▁شاخوں	-10.7329
ترا	-10.7329
ɪ	-10.7339
▁سجاوٹ	-10.7339
▁سوئچ	-10.7339
▁فائبر	-10.7339
▁مرطوب	-10.7339
▁ناظرین	-10.7339
▁نفاذ	-10.7339
▁نمٹنے	-10.7339
▁چودہویں	-10.7339
▁جارہی	-10.7339
▁کرایہ	-10.7339
▁جوآن	-10.7339
▁گھرانوں	-10.7339
▁چربی	-10.734
▁مایوس	-10.7341
▁عبدال	-10.7341
▁چکر	-10.7342
▁ریویو	-10.7342
▁مائع	-10.7342
▁1919	-10.7343
▁1913	-10.7344
▁کلارک	-10.7345
▁1959	-10.7345
▁گزرنے	-10.7347
▁گاہوں	-10.7348
روم	-10.7364
یئنز	-10.7364
mp	-10.7366
بان	-10.7381
▁ایرو	-10.7388
▁لاجز	-10.7389
▁ہاس	-10.7392
▁ٹاورز	-10.7394
▁لینا	-10.7398
▁امیدواروں	-10.7411
▁حکومتی	-10.7412
▁سنی	-10.7418
ec	-10.7423
▁مڈل	-10.7432
▁جائز	-10.7439
▁استثنا	-10.7454
▁حصص	-10.7454
▁دھارے	-10.7454
▁وزراء	-10.7454
▁کھڑے	-10.7454
▁گھنٹوں	-10.7454
▁گہرے	-10.7454
▁اوباما	-10.7454
▁رومانوی	-10.7454
▁منچو	-10.7454
▁کیوبزم	-10.7454
▁ابتداء	-10.7455
▁گھاس	-10.7455
▁آرائش	-10.7455
▁پگھلنے	-10.7456
ہین	-10.7458
▁اخلاقیات	-10.746
▁1925	-10.7461
▁بیٹھ	-10.7461
▁کتا	-10.7461
▁ٹٹو	-10.7463
سلاو	-10.7474
▁پیروکاروں	-10.749
▁ٹیوب	-10.7491
5)	-10.7494
▁ڈوب	-10.7494
▁جیل	-10.7498
▁ٹیپ	-10.7503
▁گیر	-10.7524
▁فصل	-10.7533
▁Ca	-10.7544
3،000	-10.7546
ایل	-10.7551
▁مشنری	-10.7552
▁راج	-10.7556
▁بنا۔	-10.7562
▁بارہ	-10.7563
▁تصفیہ	-10.757
▁دھکیل	-10.757
▁سپلائی	-10.757
▁قاعدہ	-10.757
▁ڈنمارک	-10.757
▁گریجویشن	-10.757
▁سنہری	-10.757
▁درکار	-10.7571
▁رگبی	-10.7571
▁ایڈمرل	-10.7571
▁بروکلین	-10.7571
▁کردیئے	-10.7572
▁بناء	-10.7572
▁پہنتے	-10.7573
▁دکھائی	-10.7573
▁گھومنے	-10.7574
▁لہروں	-10.7581
▁1890	-10.7582
▁موجد	-10.7587
▁ہاکی	-10.7587
▁نشانات	-10.7589
-3	-10.7591
▁کھل	-10.7592
▁حکمرانوں	-10.7595
▁اسٹیو	-10.7608
▁تخلیقی	-10.761
▁فلائٹ	-10.7621
▁نیوی	-10.7622
▁ساختی	-10.763
▁پیروکار	-10.7652
▁ریجن	-10.7656
▁وہیل	-10.7678
▁ولیمز	-10.768
▁تبصرہ	-10.7688
▁عقیدت	-10.7688
▁میکینٹوش	-10.7688
▁نباتات	-10.7688
▁گنجائش	-10.7688
▁قطر	-10.7688
▁ہوچکی	-10.7688
▁آرگنائزیشن	-10.7688
▁دکھائے	-10.7689
▁اسہال	-10.7689
▁1947	-10.7692
▁1853	-10.7697
0,000	-10.77
▁ناک	-10.77
ke	-10.7702
▁آلے	-10.7706
7،000	-10.7708
▁چیزیں	-10.7709
▁کارگو	-10.7719
▁لیڈی	-10.7723
▁سوویتوں	-10.7723
▁مرنے	-10.7725
ریل	-10.7732
▁تحریکوں	-10.7737
▁ماسکو	-10.7764
بعد	-10.7768
▁فائلوں	-10.7769
▁گھوم	-10.7803
▁دہندگان	-10.7807
▁لیفٹیننٹ	-10.7807
▁ممنوع	-10.7807
▁مناظر	-10.7807
▁نامعلوم	-10.7807
▁بنگال	-10.7809
▁کیریبین	-10.7809
▁یکم	-10.7813
▁دق	-10.7814
▁بائیں	-10.7814
▁ایون	-10.7816
میا	-10.7817
▁کینٹن	-10.782
▁قیمتی	-10.7823
▁آرکائیوز	-10.7842
▁فصلوں	-10.7845
▁مردہ	-10.7849
au	-10.7856
tra	-10.7861
▁نیدرلینڈ	-10.7907
▁43	-10.7921
▁چینیوں	-10.7921
▁ملازم	-10.7923
▁آرکی	-10.7924
▁ستم	-10.7925
▁ناراض	-10.7926
▁افادیت	-10.7927
▁ایتھوپیا	-10.7927
▁بوناپارٹ	-10.7927
▁تقویت	-10.7927
▁مجھے	-10.7927
▁محاذ	-10.7927
▁منصب	-10.7927
▁وابستگی	-10.7927
▁ہوجاتے	-10.7927
▁اینگلیکن	-10.7927
▁1911	-10.7927
▁سویڈن	-10.7928
▁ماڈیول	-10.7928
▁ریٹائر	-10.7928
▁مزاج	-10.7928
▁نامیبیا	-10.7928
▁فائز	-10.7929
▁جملے	-10.7929
▁کیوبا	-10.7931
tt	-10.7931
▁1934	-10.7935
▁شوہر	-10.7935
▁اگلی	-10.7935
▁تنقیدی	-10.7942
▁1830	-10.7946
▁(12	-10.7946
▁ڈیسک	-10.7952
▁کرلیا۔	-10.7955
av	-10.7966
▁موسمی	-10.7966
▁تینوں	-10.797
▁بلاکس	-10.797
ٹیٹ	-10.7972
▁کنٹرولر	-10.7982
▁پہنچا۔	-10.799
▁خوش	-10.799
▁Al	-10.7998
▁سنت	-10.8003
▁عثمانیوں	-10.8004
▁فرقوں	-10.8012
▁شہریت	-10.8016
فن	-10.8021
▁قبائلی	-10.8032
▁کیپٹن	-10.8044
▁متغیر	-10.8046
ī	-10.8049
▁آدھے	-10.8049
▁روزمرہ	-10.8049
▁روزویلٹ	-10.8049
▁فرنچائز	-10.8049
▁فسادات	-10.8049
▁قطع	-10.8049
▁نمائندے	-10.8049
▁ڈپارٹمنٹ	-10.8049
▁پتلی	-10.8049
▁کمپیکٹ	-10.8049
▁لڑکوں	-10.8049
▁کیمسٹری	-10.805
▁پرسکون	-10.805
ویئر	-10.8051
▁ٹرام	-10.8051
▁کھاتے	-10.8052
▁بچایا	-10.8057
▁ستنداریوں	-10.8058
▁لسانیات	-10.8059
▁سنگین	-10.8059
▁کانسی	-10.8071
▁1500	-10.8087
▁کھیلتی	-10.809
▁اڑ	-10.8094
▁تم	-10.8103
▁واقعی	-10.8106
▁چینلز	-10.8115
▁1،	-10.8124
▁نیپ	-10.8152
▁فونٹ	-10.8152
▁اسکالر	-10.8153
▁ہاؤسز	-10.8156
▁جونز	-10.8158
▁جاپانیوں	-10.8163
á	-10.8173
▁1909	-10.8173
▁بازیافت	-10.8173
▁قاصر	-10.8173
▁انفارمیشن	-10.8173
▁بلقان	-10.8173
▁آتش	-10.8173
▁انٹرویو	-10.8173
▁ونڈسر	-10.8173
▁ناممکن	-10.8173
▁حیات	-10.8173
▁ڈرامہ	-10.8173
▁جلتی	-10.8175
▁ملیشیا	-10.8175
sti	-10.8178
▁ریئل	-10.8178
▁فوسل	-10.818
▁(11	-10.8185
▁ایڈی	-10.8194
▁ڈاٹ	-10.8195
وت	-10.8197
ang	-10.8208
▁وفاداری	-10.8217
▁ایبل	-10.8218
▁چوری	-10.8221
ریاس	-10.8239
▁برآمدات	-10.8242
▁ہب	-10.8243
▁بلو	-10.8246
▁فلسفیوں	-10.825
▁اڑا	-10.8255
▁ایپی	-10.8257
▁آرائی	-10.8263
▁کھیلے	-10.8264
▁دہی	-10.8267
▁سرو	-10.8272
▁مختص	-10.8286
گول	-10.8292
▁رائٹس	-10.8295
▁170	-10.8297
▁اصرار	-10.8298
▁انتباہ	-10.8298
▁پندرہویں	-10.8298
▁شاذ	-10.8298
▁داغ	-10.8298
▁ریسلنگ	-10.83
▁ہٹلر	-10.83
▁پہننے	-10.8302
▁1927	-10.8303
▁سمجھتا	-10.8304
فائی	-10.8304
▁گرافی	-10.8307
▁(8	-10.8307
▁فرمان	-10.8307
▁تائی	-10.8307
▁گنتی	-10.831
▁سربیا	-10.831
▁بینر	-10.8311
▁نالی	-10.8316
▁تیر	-10.8318
▁ڈاون	-10.8327
ru	-10.8328
▁قرضوں	-10.8331
▁باغیوں	-10.8331
▁فلمی	-10.8336
-4	-10.8342
▁پلانک	-10.8353
▁انڈر	-10.8363
▁ڈیجی	-10.8367
▁De	-10.838
▁لائٹس	-10.8381
od	-10.8413
▁آیا۔	-10.8419
لامحدود	-10.8424
▁بریگیڈ	-10.8424
▁ریزولوشن	-10.8424
▁کنفیڈریٹ	-10.8424
ο	-10.8424
▁مسجد	-10.8424
▁وائلڈ	-10.8424
▁مادری	-10.8424
▁پلاسٹک	-10.8425
▁مفادات	-10.8426
▁بیلجیم	-10.8426
▁پوچھ	-10.8427
▁250	-10.8427
▁قوس	-10.8429
▁پانچواں	-10.8429
▁1929	-10.8429
▁ہوگئیں۔	-10.8434
▁عہدہ	-10.8436
▁میسنک	-10.8439
بشمول	-10.8443
▁ڈرا	-10.8448
▁میٹنگ	-10.8456
▁لگائی	-10.8463
▁ارل	-10.8473
▁لوٹ	-10.8476
▁ووٹنگ	-10.8489
▁ہاک	-10.8493
▁سنگلز	-10.8506
▁کمائی	-10.8506
▁برتن	-10.8516
▁سینٹرل	-10.8519
▁بھائیوں	-10.8521
▁ریکارڈوں	-10.8524
▁ڈوم	-10.8526
پان	-10.8543
▁لتھوانیا	-10.8551
▁کارکن	-10.8551
▁آکسیجن	-10.8553
▁انسائیکلوپیڈیا	-10.8553
▁اپارٹمنٹ	-10.8553
▁تبادلے	-10.8553
▁تعاقب	-10.8553
▁رضاکارانہ	-10.8553
▁شرکاء	-10.8553
▁مشاورت	-10.8553
▁ورثہ	-10.8553
▁گورباچوف	-10.8553
▁1924	-10.8553
▁لاکھوں	-10.8553
▁بھارت	-10.8553
▁گھیر	-10.8553
▁موزوں	-10.8553
▁سوڈان	-10.8553
▁جلتے	-10.8554
,000،	-10.8558
▁1933	-10.8559
▁گلوبل	-10.8559
▁اٹھانے	-10.856
-16	-10.8565
▁چارلز	-10.8565
▁پرائم	-10.8566
▁200،000	-10.8569
▁کریمیا	-10.857
▁ہیکٹر	-10.8572
-15	-10.8572
▁ماڈلز	-10.8581
ber	-10.859
▁برو	-10.8599
▁ملنے	-10.8607
▁امپ	-10.8614
6،000	-10.8615
100	-10.8648
▁ٹینک	-10.8652
ائڈس	-10.8658
▁کینیڈی	-10.8674
ٰ	-10.8679
▁شکایت	-10.8683
▁مثلث	-10.8683
▁نصاب	-10.8683
▁خوشحال	-10.8683
▁ٹھیک	-10.8683
▁آجر	-10.8686
▁ڈسٹنی	-10.8686
ولوجیکل	-10.8686
▁لکیری	-10.8687
▁شاپنگ	-10.8688
ویچ	-10.8697
▁فورم	-10.8706
پہلے	-10.8728
▁میگا	-10.8728
▁بلندی	-10.8743
▁بریک	-10.8751
▁ماؤ	-10.8752
▁Re	-10.877
▁پہن	-10.8771
▁شاہ	-10.878
▁تہواروں	-10.8781
▁پٹی	-10.8785
▁مشیر	-10.8786
▁گرفتاری	-10.8786
▁حفاظتی	-10.8791
▁اختلاف	-10.881
▁کامکس	-10.881
کوپن	-10.881
λ	-10.8814
▁اعمال	-10.8814
▁تجاوز	-10.8814
▁دعوے	-10.8814
▁غربت	-10.8814
▁فیمیکوم	-10.8814
▁محروم	-10.8814
▁مشورے	-10.8814
▁نمائندہ	-10.8814
▁1907	-10.8814
▁انصاف	-10.8814
▁جاسکتے	-10.8814
▁پائپ	-10.8814
▁ہمارے	-10.8814
▁عصر	-10.8814
▁فیملی	-10.8814
▁سباق	-10.8815
▁سیاق	-10.8815
▁جملہ	-10.8816
▁ٹیکنک	-10.8818
▁1951	-10.8819
▁لائے	-10.8824
▁نوعمروں	-10.8827
▁سوالات	-10.8833
▁گلیشیئرز	-10.8834
▁پنکھوں	-10.884
▁میچوں	-10.8843
▁لفٹیں	-10.8846
▁قدمی	-10.8853
▁بچا	-10.8853
▁تھامسن	-10.8858
▁سوٹ	-10.8868
سب	-10.8881
-12	-10.8882
▁راہب	-10.8915
▁ووٹوں	-10.8922
فری	-10.8925
یرو	-10.8926
▁گلیشیئر	-10.8927
▁بیج	-10.8934
2،000	-10.8941
▁طلاق	-10.8947
▁نقشہ	-10.8947
▁ٹھنڈا	-10.8947
▁ایکسپریس	-10.8947
▁ارجنٹائن	-10.8948
▁کرافٹ	-10.8948
▁پیسے	-10.8948
▁ٹیونز	-10.8948
▁میڈرڈ	-10.8948
▁برائن	-10.8948
▁اٹھائے	-10.8949
▁کیپلا	-10.8951
▁مائیکرو	-10.8953
▁ورجن	-10.8953
▁تنظیمیں	-10.8956
جنگ	-10.8957
▁1855	-10.896
▁ٹچ	-10.8968
▁ٹائی	-10.8974
▁کاؤنٹر	-10.8988
لورین	-10.8991
op	-10.8992
▁لنکن	-10.8998
▁عہدوں	-10.9
▁سیاحتی	-10.9006
▁پلاٹ	-10.9009
بورو	-10.903
▁لینگ	-10.9035
▁موری	-10.9038
▁600	-10.9039
▁ماحولیات	-10.9057
▁طرفہ	-10.9059
▁کیمیکل	-10.9064
▁موم	-10.9069
ist	-10.907
▁مالیکیول	-10.9071
▁ASCII	-10.9083
▁امتحان	-10.9083
▁انفراسٹرکچر	-10.9083
▁ایمسٹرڈیم	-10.9083
▁جھنڈا	-10.9083
▁شعبہ	-10.9083
▁فیصلوں	-10.9083
▁لیورپول	-10.9083
▁ٹکڑوں	-10.9083
▁پنسلوانیا	-10.9083
▁پالرمو	-10.9083
▁ہجوم	-10.9083
▁لڑکیوں	-10.9083
▁ویٹیکن	-10.9083
▁فوربس	-10.9083
▁شریف	-10.9083
▁ہیلنسٹک	-10.9083
▁نیپولین	-10.9083
▁سرحدی	-10.9083
▁مجرمانہ	-10.9084
bo	-10.9084
▁دوستانہ	-10.9085
▁ہسٹری	-10.9085
▁پرامن	-10.9085
▁اڑنے	-10.9087
▁شرمن	-10.9091
▁دھاتی	-10.9093
▁کلیسیا	-10.9096
▁سنبھالنے	-10.9097
▁ہیومن	-10.9104
ans	-10.9126
▁استوا	-10.9126
▁بمبار	-10.9148
▁اٹھ	-10.915
▁ملا۔	-10.9152
▁800	-10.9156
▁کیریئرز	-10.9165
لاطینی	-10.9168
▁کرایا۔	-10.9174
▁میٹل	-10.9185
▁جیتے	-10.9195
▁ڈرم	-10.9198
▁سازوں	-10.9204
▁بانٹ	-10.9204
▁بالغوں	-10.9216
ι	-10.922
▁ارادے	-10.922
▁تحسین	-10.922
▁سمفونی	-10.922
▁قحط	-10.922
▁مراعات	-10.922
▁ملائیشیا	-10.922
▁پبلشر	-10.922
▁پیچیدگی	-10.922
▁کیمبرج	-10.922
▁دادا	-10.922
▁آگاہ	-10.922
▁ماپا	-10.9228
▁1871	-10.9229
▁1848	-10.9233
وٹو	-10.9239
▁برازیلیا	-10.9239
▁روکتا	-10.9242
▁اسٹیون	-10.9242
ینڈر	-10.9247
▁راہ	-10.9248
br	-10.9253
des	-10.9278
لیف	-10.928
مبا	-10.9284
▁مزدور	-10.9296
▁ریفری	-10.9297
▁بیکر	-10.9302
▁ڈیوس	-10.9307
ill	-10.931
▁رینک	-10.9311
حکومت	-10.932
wa	-10.9323
▁ہونی	-10.9325
پٹن	-10.934
آرکیٹیکچر	-10.9358
▁مکوڑوں	-10.9358
▁ٹکڑا	-10.9358
▁چڑیا	-10.9358
▁خراج	-10.9358
▁سراغ	-10.9358
▁خوراک	-10.9359
▁اوزار	-10.9361
▁گھرا	-10.9361
sc	-10.9362
▁وارنر	-10.9364
▁PS	-10.9367
▁ہٹنے	-10.9376
▁ٹکٹ	-10.9378
▁اسکیل	-10.9385
▁گرڈ	-10.9385
▁میلان	-10.9387
▁وکٹر	-10.939
▁سمجھا۔	-10.9395
ard	-10.9401
ٹیج	-10.9401
▁کامل	-10.9412
▁نشستوں	-10.9416
▁کھال	-10.9417
▁کرانے	-10.9421
gu	-10.943
▁ایش	-10.9441
الک	-10.9466
▁چوٹیوں	-10.9468
▁ذیل	-10.9474
▁شیک	-10.9487
▁بزرگ	-10.9499
▁دائیں	-10.9499
▁علامات	-10.9499
▁ایتھنز	-10.9499
▁اندوز	-10.95
▁پرجوش	-10.95
▁سبسڈی	-10.95
▁جمناسٹکس	-10.9501
▁ڈسٹ	-10.9503
▁سسلی	-10.9505
▁واچ	-10.9506
▁پہنے	-10.9507
▁مالیکیولر	-10.9512
▁لوئی	-10.952
لاؤ	-10.9522
▁سڑکیں	-10.9523
▁بائ	-10.9529
▁منطقی	-10.9534
▁ڈینس	-10.9541
▁چیمپئنز	-10.958
▁جات	-10.9585
▁میدانوں	-10.959
▁دھاتوں	-10.9604
▁پیٹرک	-10.9615
▁کاؤنٹ	-10.9634
جیم	-10.9634
▁عربوں	-10.964
▁اونچے	-10.9642
▁جارحانہ	-10.9642
▁سولہویں	-10.9642
▁مجسمے	-10.9642
▁مہینہ	-10.9642
▁کھڑکی	-10.9642
▁ہنگامی	-10.9642
▁پھٹ	-10.9642
▁پروڈکٹ	-10.9643
▁ترجمان	-10.9643
▁چاول	-10.9643
▁آئرن	-10.9644
▁فہم	-10.9644
▁دبانے	-10.9644
▁چلائے	-10.9645
▁سوان	-10.9645
/'	-10.9648
▁Ba	-10.9649
▁میڈیم	-10.9651
▁Li	-10.9652
▁1898	-10.9654
▁عین	-10.9657
▁پہاڑیوں	-10.966
▁ہینڈل	-10.9661
▁دیکھتا	-10.9662
▁تفصیلی	-10.9662
▁گرافک	-10.9672
▁نکالا	-10.9679
▁درجن	-10.9679
▁روٹر	-10.9689
▁ہاورڈ	-10.97
▁مقررہ	-10.9703
▁رسی	-10.9713
▁ہورن	-10.9714
لیکن	-10.9715
▁گولڈن	-10.9718
▁تاروں	-10.9724
▁ہلز	-10.973
ism	-10.9744
▁نیش	-10.9749
فیر	-10.9756
▁خریدی	-10.977
پارٹ	-10.9777
▁اسٹریم	-10.9778
ς	-10.9787
▁اعتدال	-10.9787
▁الجھن	-10.9787
▁ایئرکرافٹ	-10.9787
▁تضاد	-10.9787
▁طرازی	-10.9787
▁لمیٹڈ	-10.9787
▁فزکس	-10.9787
▁میکانکس	-10.9787
▁سککوں	-10.9787
▁گائیڈ	-10.9787
▁پروسیسر	-10.9787
▁مہلک	-10.9787
▁ہلاکتوں	-10.9787
▁دراز	-10.9787
▁لچکدار	-10.9788
▁اینڈریو	-10.9788
▁بھاپ	-10.9788
▁ہارورڈ	-10.9789
▁بستر	-10.9789
▁سیکھا	-10.979
▁گاڑیاں	-10.9791
▁1921	-10.9792
▁فنگس	-10.9793
▁ہلکی	-10.9797
▁تیرہ	-10.9798
▁بمباروں	-10.9826
▁موٹی	-10.9833
▁جڑی	-10.9839
▁میڈل	-10.9841
ry	-10.9866
▁لوپ	-10.9898
وجین	-10.9899
امین	-10.9919
▁باؤ	-10.9924
▁بیلی	-10.9928
▁باغی	-10.9934
▁آئسوٹوپ	-10.9934
▁اطراف	-10.9934
▁اطمینان	-10.9934
▁بالادستی	-10.9934
▁دعووں	-10.9934
▁سویڈش	-10.9934
▁فیوژن	-10.9934
▁مارگریٹ	-10.9934
▁مسیسیپی	-10.9934
▁معاوضہ	-10.9934
▁کنزرویٹو	-10.9934
▁قیاس	-10.9934
▁پلازہ	-10.9934
▁لارنس	-10.9934
▁گوتم	-10.9934
▁اسکواڈرن	-10.9935
▁کروشیا	-10.9935
▁بیوہ	-10.9935
▁دعا	-10.9936
▁1928	-10.9939
▁مارجن	-10.9947
▁نووا	-10.995
▁حسین	-10.995
▁ارضیاتی	-10.9953
▁کیمیکلز	-10.9956
▁پہچانا	-10.9957
▁ڈیلٹا	-10.9959
▁1850	-10.9965
▁شیو	-10.9976
▁کریک	-10.998
▁ڈچی	-10.9982
▁امکانات	-10.9982
▁گلیوں	-11.0002
▁متاثرین	-11.0007
▁پیئر	-11.0017
▁مارکیٹنگ	-11.0029
▁وارڈ	-11.003
▁دوستوں	-11.0051
▁سرگرم	-11.0056
▁مائیک	-11.0057
sta	-11.0058
▁دیوی	-11.0075
ρ	-11.0083
−	-11.0083
▁آکسائیڈ	-11.0083
▁انشورنس	-11.0083
▁بخود	-11.0083
▁دھماکہ	-11.0083
▁رقبے	-11.0083
▁ضائع	-11.0083
▁مباحثے	-11.0083
▁محاصرہ	-11.0083
▁منجمد	-11.0083
▁برتری	-11.0083
▁ماڈرن	-11.0083
▁دودھ	-11.0083
▁مویشی	-11.0084
▁کیپیٹل	-11.0084
▁مورفولوجی	-11.0085
▁خمیر	-11.0086
▁لوئر	-11.0092
▁توڑنے	-11.0092
▁مادیت	-11.0095
▁آپشن	-11.0099
▁جماعتیں	-11.0099
▁پگ	-11.01
▁لگے	-11.0103
▁ہرٹز	-11.0103
▁حلف	-11.0118
▁سیزر	-11.0128
▁بینکنگ	-11.0129
▁بندوقوں	-11.0138
▁دستیابی	-11.0145
▁معماروں	-11.0147
▁چیٹ	-11.015
▁بارٹس	-11.0162
▁منعقدہ	-11.017
▁گناہ	-11.0185
▁پیٹرن	-11.0202
▁تل	-11.0203
▁(13	-11.0204
▁لکیر	-11.023
▁واقف	-11.0233
▁انٹارکٹک	-11.0235
▁بلغاریہ	-11.0235
▁خوفزدہ	-11.0235
▁میتھوڈسٹ	-11.0235
▁ناپسندیدہ	-11.0235
▁پلائموتھ	-11.0235
▁پوشیدہ	-11.0235
▁شیعہ	-11.0235
▁فخر	-11.0235
▁مرضی	-11.0235
▁فائٹر	-11.0235
▁بیداری	-11.0235
▁بیلاروس	-11.0235
▁سٹائن	-11.0237
▁پائن	-11.0238
▁اشتہارات	-11.0238
▁1908	-11.0238
▁ایڈیسن	-11.0238
▁ہارمون	-11.0238
▁کاپٹر	-11.0241
▁لٹل	-11.0241
▁1857	-11.0246
▁کیپسیٹرز	-11.0246
▁دلائی	-11.0249
ver	-11.0269
▁رہیں	-11.027
yl	-11.0273
▁بربر	-11.0275
▁بیجوں	-11.0278
سابقہ	-11.0281
غیر	-11.0284
▁122	-11.0286
▁آبی	-11.0292
▁لارڈز	-11.0308
▁ہرن	-11.0311
ica	-11.0311
▁سازش	-11.0324
▁جلاوطنی	-11.0329
▁فارمیٹس	-11.0342
▁جایا	-11.0342
▁بائیوٹک	-11.037
▁کاسٹیل	-11.0376
ä	-11.0389
▁استحصال	-11.0389
▁افلاطون	-11.0389
▁تجریدی	-11.0389
▁تنصیب	-11.0389
▁درحقیقت	-11.0389
▁لطیفہ	-11.0389
▁مقالے	-11.0389
▁مکانات	-11.0389
▁پھنس	-11.0389
▁کشیدگی	-11.0389
▁مندرجہ	-11.0389
▁1854	-11.0389
▁آڈیشن	-11.0389
▁اینلیڈس	-11.0389
▁پرجیوی	-11.0389
▁منیجر	-11.0391
▁ریاضیاتی	-11.0391
▁ٹیلیفون	-11.0393
▁ایبیریا	-11.0393
▁گونج	-11.0393
▁شماریاتی	-11.0394
▁پسندانہ	-11.0395
▁پینٹنگ	-11.0402
▁صفت	-11.0405
za	-11.0406
▁لوگو	-11.041
فت	-11.0411
▁چٹانوں	-11.0412
▁سروسز	-11.043
-5	-11.0432
فریڈ	-11.0437
▁ٹینس	-11.0441
▁بلڈ	-11.0445
▁رہن	-11.0447
وسکی	-11.0448
▁سچ	-11.0449
▁درمیانے	-11.0458
▁رجحانات	-11.0466
▁گرو	-11.0469
▁فلپس	-11.047
ٹرم	-11.0479
▁مالیت	-11.0482
▁66	-11.0489
AC	-11.0533
!	-11.0545
▁capacitor	-11.0545
▁اثنا	-11.0545
▁اکنامک	-11.0545
▁جھنڈے	-11.0545
▁عجائب	-11.0545
▁محیط	-11.0545
▁مدعو	-11.0545
▁نقاد	-11.0545
▁کمپیوٹنگ	-11.0545
▁ہیرالڈ	-11.0545
æ	-11.0545
▁انٹرسٹیٹ	-11.0545
▁آپٹیکل	-11.0545
▁انخلا	-11.0545
▁کنواری	-11.0545
▁نظریے	-11.0545
▁بقا	-11.0545
▁وارث	-11.0547
▁نیشنز	-11.0547
▁دریں	-11.0549
▁موزیکوں	-11.055
▁جوڑتی	-11.0551
▁بریوری	-11.0552
▁1932	-11.0554
▁AD	-11.0554
فیکٹ	-11.0556
▁ضمنی	-11.0561
▁ملٹری	-11.0562
▁1865	-11.0563
▁ریڈار	-11.0565
▁ڈومینک	-11.0566
▁گزارا	-11.0568
▁لاش	-11.0575
▁دیکھے	-11.0583
▁Se	-11.0586
▁حالتوں	-11.0587
▁پروڈکشنز	-11.0603
▁فیکٹریوں	-11.0604
▁بیمار	-11.0609
▁پیرو	-11.0617
پیدائش	-11.0622
▁فریڈم	-11.0624
ورین	-11.0635
▁سمندروں	-11.065
▁سیلز	-11.0658
▁سیاستدان	-11.0667
com	-11.067
▁الیکٹر	-11.0677
▁مضافات	-11.0678
der	-11.0684
▁Po	-11.0694
▁عبد	-11.0701
▁چوٹ	-11.0703
▁اجارہ	-11.0704
▁اعضاء	-11.0704
▁افسردگی	-11.0704
▁افقی	-11.0704
▁اپوزیشن	-11.0704
▁دائمی	-11.0704
▁متوسط	-11.0704
▁سندھ	-11.0704
▁آرکٹک	-11.0704
▁کپڑوں	-11.0704
▁ریزورٹ	-11.0704
▁مجاز	-11.0704
▁دوگنا	-11.0704
▁انسٹال	-11.0704
▁کلوگرام	-11.0705
▁پالتو	-11.0706
▁ہائپر	-11.0707
▁مبصرین	-11.0707
▁حساسیت	-11.0707
▁کاٹنے	-11.0708
▁سائمن	-11.0709
▁بلایا	-11.0713
▁فوت	-11.0713
▁بریڈ	-11.0717
ff	-11.0718
▁پڑے	-11.0719
▁اداکارہ	-11.0721
▁گلوکارہ	-11.0726
▁مظاہروں	-11.073
▁رپورٹس	-11.0732
▁کرکٹ	-11.0756
▁سلیم	-11.0758
▁ٹونی	-11.0762
ana	-11.0762
▁امام	-11.0769
▁لیول	-11.0769
▁ڈرائیور	-11.0771
0.8	-11.0781
sp	-11.0787
ماری	-11.079
▁ترکوں	-11.0799
▁تیس	-11.08
▁اسٹرا	-11.0801
▁بنتے	-11.0811
بلز	-11.0835
US	-11.0837
▁کرے۔	-11.0844
▁Schwarzenegger	-11.0865
▁XXIII	-11.0865
▁احمد	-11.0865
▁ادراک	-11.0865
▁ایلومینیم	-11.0865
▁بالواسطہ	-11.0865
▁تبصرے	-11.0865
▁تجزیے	-11.0865
▁تفتیش	-11.0865
▁شاہراہ	-11.0865
▁لمبے	-11.0865
▁مدرسوں	-11.0865
▁مقدونیائی	-11.0865
▁چہرے	-11.0865
▁ہیمپشائر	-11.0865
▁اسٹینڈرڈ	-11.0865
▁کیٹالان	-11.0865
▁خادم	-11.0865
▁پیکیج	-11.0867
▁کرسمس	-11.0867
▁انتونیو	-11.0867
▁تاریک	-11.0868
▁ڈیوٹی	-11.0869
▁جائزے	-11.0875
▁کلچر	-11.0884
▁30،000	-11.0893
▁40،000	-11.0897
▁سنڈ	-11.0907
▁وائن	-11.0908
▁علامتی	-11.0909
▁میکرو	-11.0911
▁یونٹوں	-11.0911
▁جیتا۔	-11.0913
▁سود	-11.0913
du	-11.0914
▁130	-11.0917
▁وائڈ	-11.0917
▁کرائے	-11.092
▁بھیجی	-11.0926
▁اسٹیپ	-11.0929
ٹینا	-11.0931
▁سلور	-11.0938
▁سرحدوں	-11.094
▁شارٹ	-11.0955
▁رینڈ	-11.0956
▁حریفوں	-11.0962
▁ایڈم	-11.0972
امریکی	-11.0977
▁ترجیحی	-11.0982
▁آئیں	-11.0991
سلر	-11.0998
▁ڈیموکریٹ	-11.0998
▁تاثر	-11.1007
▁کمیونسٹوں	-11.1019
▁سیلون	-11.102
*	-11.1029
▁احاطے	-11.1029
▁تشہیر	-11.1029
▁رواداری	-11.1029
▁ماتحت	-11.1029
▁متوازن	-11.1029
▁مراٹھا	-11.1029
▁زیلڈا	-11.1029
▁نفرت	-11.1029
▁کرسچن	-11.1029
▁وائلن	-11.1029
▁پٹریوں	-11.1029
▁جڑواں	-11.103
▁درستگی	-11.1033
▁جارجیائی	-11.1033
▁1935	-11.1035
▁علامتوں	-11.1035
▁پکڑنے	-11.1035
▁ٹیکنیکل	-11.1036
▁گوڈ	-11.1041
▁زہر	-11.1041
▁مونرو	-11.1044
▁2.0	-11.1046
▁1.2	-11.1049
▁ورتھ	-11.1051
▁ووٹرز	-11.1053
▁جوہان	-11.1059
▁شاخیں	-11.1062
ris	-11.1065
▁جلاوطن	-11.1093
▁لایا۔	-11.1099
▁اپنایا۔	-11.1111
▁قبرصی	-11.1115
▁سرحدیں	-11.1124
ung	-11.1126
ھم	-11.1127
ov	-11.1145
▁میسی	-11.1147
▁سوگ	-11.1162
▁کہانیوں	-11.1166
▁خودمختار	-11.117
▁کمیونیکیشن	-11.1175
up	-11.1178
▁20،000	-11.1191
ɛ	-11.1196
▁برانچ	-11.1196
▁تجاویز	-11.1196
▁تسلط	-11.1196
▁تمباکو	-11.1196
▁ممالیہ	-11.1196
▁چاہے	-11.1196
▁یادداشت	-11.1196
▁خروش	-11.1196
▁کارپوریٹ	-11.1196
▁آبدوز	-11.1196
▁الہام	-11.1196
▁مرمت	-11.1196
▁ریشوں	-11.1196
▁فادر	-11.1196
▁کارٹون	-11.1196
▁معافی	-11.1196
▁دیہات	-11.1197
▁اینٹوں	-11.1197
▁ٹرومن	-11.1201
▁خرید	-11.1208
▁1839	-11.121
▁پیوس	-11.1213
▁پھیلانے	-11.1214
▁روزہ	-11.1223
EC	-11.1223
pr	-11.1234
ڈونگ	-11.1242
▁فش	-11.1246
▁یارڈ	-11.1259
▁فلائی	-11.1271
▁سیکٹر	-11.1272
▁فریڈی	-11.1283
▁اپر	-11.1283
ja	-11.1299
▁Ka	-11.1312
روگ	-11.1319
▁نیوٹن	-11.132
▁صد	-11.1328
▁سیونگ	-11.1329
▁جینیات	-11.134
جدید	-11.1341
▁سواری	-11.1349
▁آذربائیجان	-11.1365
▁تنہائی	-11.1365
▁ریگولیٹری	-11.1365
▁قلعوں	-11.1365
▁قیصر	-11.1365
▁مسودہ	-11.1365
▁ٹیکسٹائل	-11.1365
▁ہماچل	-11.1365
▁جمالیات	-11.1365
▁فروش	-11.1365
▁خاموش	-11.1366
▁کلینیکل	-11.1366
▁پرنسپل	-11.1368
▁جلانے	-11.1372
▁ٹائٹو	-11.1373
▁لگاتے	-11.1375
▁سرگرمیاں	-11.1375
▁فریقین	-11.1376
انٹو	-11.1376
▁خور	-11.1383
▁قبولیت	-11.1386
▁نوشی	-11.1388
▁آنکھوں	-11.1391
▁پارش	-11.1404
▁نبی	-11.1406
ایف	-11.1413
▁گیٹس	-11.1423
▁شپنگ	-11.1426
▁ویٹو	-11.147
chi	-11.1482
▁جوڑی	-11.1489
▁ملی۔	-11.149
▁یونٹس	-11.15
▁عثمان	-11.1509
ko	-11.1519
▁بھگ	-11.1524
▁اعلامیہ	-11.1538
▁الخط	-11.1538
▁اوہائیو	-11.1538
▁تعصب	-11.1538
▁تناظر	-11.1538
▁خلاصہ	-11.1538
▁صوابدید	-11.1538
▁عطیات	-11.1538
▁عملدرآمد	-11.1538
▁فرنیچر	-11.1538
▁مراقبہ	-11.1538
▁مکوڑے	-11.1538
▁نعرہ	-11.1538
▁پیتھوجین	-11.1538
▁گھوڑوں	-11.1538
▁1903	-11.1538
▁جھوٹ	-11.1538
▁کلنٹن	-11.1538
▁ترسیل	-11.1538
▁کنٹینر	-11.1538
▁نیلسن	-11.1538
▁سفیر	-11.154
▁1923	-11.1543
▁1916	-11.1543
▁محرکات	-11.1545
▁اسٹڈیز	-11.1548
▁فوجیں	-11.1551
▁الٹرا	-11.1551
▁قیدی	-11.1556
▁ڈیموکریٹس	-11.156
▁ہس	-11.1567
▁مرسی	-11.1573
▁ٹاک	-11.1575
سیئس	-11.1578
▁رش	-11.1585
▁بچہ	-11.1587
▁سرکٹس	-11.1593
▁ٹرنر	-11.1603
▁تحفظات	-11.1608
▁جانتے	-11.1614
▁ڈریک	-11.1626
▁کروم	-11.1632
▁کلین	-11.1642
▁عراقی	-11.1653
▁ڈاکٹروں	-11.1688
▁فکر	-11.1694
الیا	-11.1712
ُ	-11.1713
▁افسانے	-11.1713
▁اچانک	-11.1713
▁ایکسچینج	-11.1713
▁تمغہ	-11.1713
▁جارحیت	-11.1713
▁جیواشم	-11.1713
▁زرخیز	-11.1713
▁سکندر	-11.1713
▁یونیفارم	-11.1713
▁مہاکاوی	-11.1713
▁ٹووالو	-11.1713
▁گالیشیا	-11.1713
κ	-11.1713
▁البلد	-11.1713
▁چھلانگ	-11.1713
▁ملبوس	-11.1713
▁حلقوں	-11.1713
▁اسکالرشپ	-11.1713
▁مکھی	-11.1713
▁راجر	-11.1714
▁گورننگ	-11.1714
▁کرنل	-11.1715
▁ٹشو	-11.1715
mb	-11.1716
▁(14	-11.172
vo	-11.1723
▁موشن	-11.1723
▁گزرتا	-11.1726
▁پاتھ	-11.1726
▁پابندیاں	-11.1729
▁1875	-11.1729
▁رسول	-11.1731
▁ہماری	-11.1732
lle	-11.1736
▁ڈسکو	-11.1741
▁اسٹارٹ	-11.1753
▁ہیگل	-11.1758
▁مہر	-11.1759
▁ایپس	-11.177
▁سیریل	-11.1771
▁شیڈ	-11.1782
▁رال	-11.1788
per	-11.1809
▁ایڈز	-11.1829
AT	-11.1835
▁تکنیکوں	-11.1853
▁پیشرو	-11.1865
،7	-11.187
▁رنر	-11.187
مانی	-11.188
▁امتزاج	-11.1892
▁بیسیلیکا	-11.1892
▁تقلید	-11.1892
▁جعلی	-11.1892
▁جھلی	-11.1892
▁فریکوئنسی	-11.1892
▁مجسٹریٹ	-11.1892
▁ٹرانسکرپشن	-11.1892
▁پولرائزیشن	-11.1892
▁اسپیشل	-11.1892
▁پورٹیبل	-11.1892
▁کراؤن	-11.1892
▁کوئلے	-11.1892
▁مکانی	-11.1892
▁چکے	-11.1893
▁وائرلیس	-11.1893
▁آپریٹر	-11.1893
▁پرورش	-11.1893
▁سیلولر	-11.1894
▁مظاہرے	-11.1897
▁متغیرات	-11.1898
▁بھرپور	-11.1901
▁1837	-11.1906
▁1836	-11.1907
▁مائن	-11.191
▁ویلتھ	-11.1917
▁کھوج	-11.1926
▁ہیلن	-11.1927
▁چلی	-11.1936
▁ہوئیں۔	-11.1941
▁مشنریوں	-11.1949
▁To	-11.1951
▁اداکاروں	-11.1975
▁ڈپول	-11.1984
▁نسلیں	-11.1986
پالی	-11.1996
▁لگی	-11.2028
▁گلڈ	-11.203
▁تفصیل	-11.2043
▁شک	-11.2067
ولیتھک	-11.2073
NES	-11.2073
▁اناطولیہ	-11.2073
▁ثقل	-11.2073
▁صفحات	-11.2073
▁ضابطے	-11.2073
▁فتوحات	-11.2073
▁قزاقی	-11.2073
▁لنکاشائر	-11.2073
▁معائنہ	-11.2073
▁مہنگا	-11.2073
▁نوزائیدہ	-11.2073
▁کفالت	-11.2073
▁کولمبس	-11.2073
▁ہضم	-11.2073
▁کوالیفائی	-11.2073
▁1901	-11.2073
▁1904	-11.2073
▁اسٹیورٹ	-11.2073
▁کیوبسٹ	-11.2074
▁پردیش	-11.2074
▁مسمار	-11.2075
▁ٹرانسفر	-11.2077
▁اسپرنگ	-11.2078
▁لڑاکا	-11.2078
▁فنانس	-11.2079
▁رویہ	-11.2083
▁بولتا	-11.2083
▁سبزیوں	-11.2084
▁1882	-11.2087
▁لیکچرز	-11.2088
▁بندوقیں	-11.2088
▁سمجھے	-11.2089
▁1810	-11.2092
▁ریلیف	-11.2093
▁تھور	-11.2097
▁3.5	-11.2103
▁ڈول	-11.2105
▁شار	-11.2117
▁گاہیں	-11.2117
▁جل	-11.2119
بیو	-11.2124
▁اکاؤنٹس	-11.2126
▁برتنوں	-11.2126
▁فنکشنل	-11.2134
▁مزاحم	-11.2149
▁کھیلتا	-11.215
▁تصوراتی	-11.2158
▁خوشی	-11.2161
▁جڑوں	-11.2169
▁آوازیں	-11.2175
▁تہذیبوں	-11.2178
NA	-11.2183
▁خانقاہوں	-11.2187
bu	-11.2204
▁تغیر	-11.2252
▁فاؤنڈ	-11.2256
▁انٹرپرائز	-11.2259
▁انکارپوریٹڈ	-11.2259
▁حادثات	-11.2259
▁طباعت	-11.2259
▁عرصہ	-11.2259
▁قفقاز	-11.2259
▁پرکشش	-11.2259
▁چائنا	-11.2259
▁ڈسپلے	-11.2259
▁ہمسایہ	-11.2259
▁احیا	-11.2259
▁طبقہ	-11.2259
▁ناکافی	-11.2259
▁گنبد	-11.2259
▁تھراپی	-11.2259
▁لیجنڈ	-11.2259
▁دراصل	-11.2259
▁انرجی	-11.2259
▁لپیٹ	-11.2259
▁انڈیز	-11.2259
▁غار	-11.226
▁نجات	-11.226
▁امیج	-11.2261
▁ریفارمڈ	-11.2265
▁ریڈیکل	-11.2265
▁گوگل	-11.2265
▁پتے	-11.2268
▁ٹوٹنے	-11.2269
▁کٹائی	-11.2269
▁پکچرز	-11.2271
▁1847	-11.2273
▁اتھانیسس	-11.2273
▁چلاتی	-11.2277
-8	-11.2281
▁اہلکاروں	-11.2283
▁شے	-11.2285
ریکس	-11.2294
▁نکات	-11.23
▁لائسنسنگ	-11.2301
▁کمایا	-11.2316
tion	-11.2326
▁دشمنوں	-11.2357
▁گیلن	-11.2369
▁اربن	-11.2373
▁کلید	-11.238
▁ٹریس	-11.2393
ria	-11.2408
▁پنکھ	-11.2421
▁ایڈمنسٹریشن	-11.2447
▁خوشگوار	-11.2447
▁ذائقہ	-11.2447
▁فرائض	-11.2447
▁نااہل	-11.2447
▁پروموشن	-11.2447
▁ڈھول	-11.2447
▁ہیلینسٹک	-11.2447
▁خزانہ	-11.2447
▁انتھونی	-11.2447
▁کمیونزم	-11.2447
▁1842	-11.2447
▁بینجمن	-11.2447
▁سڈنی	-11.2447
▁البانیہ	-11.2448
▁دوہری	-11.2448
▁شارلٹ	-11.2448
▁مخطوطات	-11.2448
▁امیاد	-11.2448
▁ڈیجیمون	-11.2448
▁رائفل	-11.2448
▁جادوگر	-11.2449
▁کوئنز	-11.2449
▁نوکری	-11.245
▁ڈربی	-11.2451
▁شبہات	-11.2451
▁بوائے	-11.2456
▁ولسن	-11.2458
،500	-11.2459
▁کمیونیکیشنز	-11.247
▁ایڈمز	-11.2474
▁سربراہان	-11.2478
▁بروز	-11.2479
▁میسنز	-11.249
▁Ga	-11.2497
▁سانتا	-11.25
▁Bo	-11.2507
▁عبوری	-11.2519
▁گیمنگ	-11.252
▁ایجنٹوں	-11.2521
▁پوسٹل	-11.2533
اگرچہ	-11.2533
▁پلانٹس	-11.2538
▁ساکھ	-11.254
▁سستی	-11.2549
▁پراگ	-11.255
▁صفر	-11.2558
▁ہڈ	-11.2567
8،000	-11.2573
▁گروو	-11.2579
▁لیوس	-11.261
▁ایلیٹ	-11.2618
▁ٹوری	-11.2635
▁پیپر	-11.2637
▁گہرا	-11.2638
▁بدامنی	-11.264
▁برادرز	-11.264
▁تخمینے	-11.264
▁تھوڑی	-11.264
▁موزائیک	-11.264
▁پبلشنگ	-11.264
▁بیچلر	-11.264
▁قسط	-11.264
▁ڈائمنڈ	-11.264
▁کمپوزر	-11.264
▁رونالڈ	-11.264
▁کچل	-11.264
▁مراکش	-11.264
▁پتیوں	-11.264
▁نامکمل	-11.264
▁رجمنٹ	-11.264
▁گراہم	-11.264
▁جنیوا	-11.264
▁پیڈمونٹ	-11.264
▁لڑکے	-11.264
▁وڈیو	-11.2641
▁کیپٹل	-11.2641
▁آگسٹین	-11.2642
▁دلائل	-11.2642
▁بلیوارڈ	-11.2643
▁منع	-11.2644
▁بھوک	-11.2644
▁لاء	-11.2645
▁ہالینڈ	-11.2647
▁باغات	-11.2648
▁1872	-11.2653
▁1849	-11.2655
▁جاسوسی	-11.2656
▁Le	-11.266
▁آسکر	-11.2661
▁فکری	-11.2668
▁انکوڈر	-11.2668
▁اکائیوں	-11.2669
]؛	-11.2671
▁1820	-11.2673
lis	-11.2673
▁میٹرکس	-11.2696
▁ڈالا۔	-11.2699
▁کک	-11.2701
9,	-11.2702
▁بھیجا۔	-11.2717
ju	-11.2726
▁بیٹل	-11.2745
موجودہ	-11.2746
جرمن	-11.276
وئٹ	-11.2787
ایچ	-11.2795
▁ڈویلپر	-11.2815
▁مشترک	-11.2827
▁صوفی	-11.2835
کانٹینینٹل	-11.2836
▁آدھی	-11.2836
▁اسٹیبلشمنٹ	-11.2836
▁ایمرجنسی	-11.2836
▁ذرات	-11.2836
▁قزاقوں	-11.2836
▁مدرسہ	-11.2836
▁مذکورہ	-11.2836
▁مطلع	-11.2836
▁مہنگے	-11.2836
▁پندرہ	-11.2836
▁کریٹاسیئس	-11.2836
▁ہوجائیں	-11.2836
▁یونیسکو	-11.2836
▁اسپانسر	-11.2836
▁تیرہویں	-11.2836
▁کارٹریج	-11.2836
▁1815	-11.2836
▁دوپہر	-11.2836
▁خطرات	-11.2836
▁اردن	-11.2837
▁گورڈن	-11.2839
▁دبایا	-11.284
▁رجسٹریشن	-11.284
▁برنارڈ	-11.2841
▁مسخ	-11.2842
▁رومانس	-11.2846
▁شیلیوں	-11.2847
▁سینسر	-11.285
tive	-11.2854
میٹک	-11.2859
▁ہنر	-11.2864
▁فیچر	-11.2864
▁پہنچانے	-11.287
▁1400	-11.2876
/؛	-11.2878
▁سویٹ	-11.289
▁ایگل	-11.2893
▁گولف	-11.2895
▁لینن	-11.2896
▁عدالتیں	-11.2914
▁ریجنٹ	-11.2937
AS	-11.295
ST	-11.2955
▁ہوگئیں	-11.3025
▁مماثل	-11.3028
▁استقبال	-11.3034
ó	-11.3036
▁الاباما	-11.3036
▁الگورتھم	-11.3036
▁بدسلوکی	-11.3036
▁ترجمے	-11.3036
▁سامراجی	-11.3036
▁سنگاپور	-11.3036
▁شعلہ	-11.3036
▁قصبہ	-11.3036
▁مجموعوں	-11.3036
▁مفروضہ	-11.3036
▁میگاواٹ	-11.3036
▁کھدائی	-11.3036
▁سجایا	-11.3036
▁ناروے	-11.3036
▁1915	-11.3036
▁خودکشی	-11.3036
▁ٹریاسک	-11.3036
▁ہوچکا	-11.3036
▁اسپیکٹر	-11.3036
▁مبہم	-11.3036
▁کمپریس	-11.3036
▁بالکان	-11.3036
▁کپتان	-11.3036
▁ٹلسا	-11.3036
▁شکوک	-11.3037
▁مینڈیٹ	-11.3037
▁سوترا	-11.3039
▁ڈریگن	-11.304
▁برکلے	-11.304
▁بھاگنے	-11.3046
▁فلٹر	-11.3046
▁صفات	-11.3047
▁سونپ	-11.3056
▁شوگر	-11.3063
▁چارٹس	-11.3063
▁تھرڈ	-11.3064
▁موج	-11.3065
▁Ar	-11.3072
▁عقلی	-11.3074
▁سیاستدانوں	-11.3083
▁قبرصیوں	-11.3092
▁کیرول	-11.3123
▁پاول	-11.3148
▁بروس	-11.3173
▁Me	-11.3183
°	-11.3185
▁پونٹ	-11.3195
ٹیبل	-11.3197
▁ارضیات	-11.3214
▁گرہ	-11.3225
▁بخار	-11.3235
▁Twilight	-11.324
▁استثنیٰ	-11.324
▁انزائم	-11.324
▁خلیفہ	-11.324
▁دواسازی	-11.324
▁سعودی	-11.324
▁فکسچر	-11.324
▁لیوپولڈ	-11.324
▁مستثنیٰ	-11.324
▁مفروضے	-11.324
▁کیٹالونیا	-11.324
▁گفتگو	-11.324
▁یوٹریچٹ	-11.324
▁ڈیفالٹ	-11.324
▁آرنلڈ	-11.324
▁وٹامن	-11.324
▁سیرامک	-11.324
▁سرکلر	-11.324
▁پارٹنر	-11.324
▁تلوار	-11.324
▁گھنے	-11.3241
▁ولیج	-11.3241
▁تالیف	-11.3242
▁مخلوقات	-11.3244
▁ہستی	-11.3244
▁وکیل	-11.3244
▁1905	-11.3244
▁ووٹروں	-11.3245
▁پچاس	-11.3246
▁براڈکاسٹنگ	-11.3246
▁سنڈے	-11.3252
mon	-11.3253
▁ناتھ	-11.3256
ٹونک	-11.3256
▁25،000	-11.3258
▁منزلہ	-11.3262
▁تاثرات	-11.3267
▁سنائی	-11.3274
▁بارود	-11.3274
▁ٹوپی	-11.3276
nti	-11.3277
▁حرف	-11.3286
▁بدنامی	-11.3286
▁1200	-11.3311
▁مائنر	-11.3316
▁سنٹر	-11.3325
▁آرکیڈ	-11.3335
▁1600	-11.3381
اصل	-11.34
▁پیٹرو	-11.3404
بنیادی	-11.3414
جیانگ	-11.3424
▁فلک	-11.3426
▁مبصر	-11.3443
▁پگھل	-11.3444
CA	-11.3447
ü	-11.3448
ε	-11.3448
▁آٹوموبائل	-11.3448
▁القاعدہ	-11.3448
▁دانشورانہ	-11.3448
▁رابطوں	-11.3448
▁سازوسامان	-11.3448
▁شعاع	-11.3448
▁مدرسے	-11.3448
▁نوادرات	-11.3448
▁پختہ	-11.3448
▁چوراہے	-11.3448
▁چیواہوا	-11.3448
▁بیپٹسٹ	-11.3448
▁ہجے	-11.3448
▁وقار	-11.3448
▁خواب	-11.3448
▁ویدک	-11.3448
▁ڈونلڈ	-11.3448
▁ڈیویڈ	-11.3448
▁مترجم	-11.3449
▁ریشم	-11.3449
▁استاد	-11.3449
▁فشاں	-11.345
موٹو	-11.3451
▁کیمرون	-11.3451
▁ٹاسک	-11.3452
go	-11.3452
▁اسٹیمپ	-11.3453
▁واٹسن	-11.3455
ated	-11.3455
▁ہیمبرگ	-11.3455
▁مشیل	-11.3456
▁جیفری	-11.3456
▁اتنے	-11.3462
▁جادو	-11.3466
▁ڈیبیو	-11.3466
▁پھیلنے	-11.3486
▁ریپر	-11.3493
▁ڈیوائسز	-11.3495
▁سائیکلنگ	-11.3501
▁ٹیمپل	-11.3503
▁(190	-11.3507
▁700	-11.3513
▁بھرنے	-11.3532
▁ماؤس	-11.3538
uk	-11.3569
▁اشتہار	-11.3601
▁مریض	-11.3624
1.9	-11.3648
▁128	-11.3649
▁بائٹ	-11.3654
▁افسانوں	-11.3661
▁اکیسویں	-11.3661
▁بیلجئیم	-11.3661
▁تجزیاتی	-11.3661
▁حادثے	-11.3661
▁سپانسر	-11.3661
▁ورثے	-11.3661
▁پچھلی	-11.3661
▁چاہتی	-11.3661
▁ہبسبرگ	-11.3661
▁خاکہ	-11.3661
▁کاشتکاری	-11.3661
▁سراہا	-11.3661
▁بٹالین	-11.3661
▁سیمینار	-11.3661
▁سیفٹی	-11.3661
▁Ta	-11.3662
▁لٹکا	-11.3662
▁جوبلی	-11.3663
▁اورلینز	-11.3665
▁دکھاتے	-11.3667
▁ایبٹ	-11.3668
▁گوانگ	-11.3668
▁نسبیت	-11.3669
▁کھائی	-11.367
▁بچاؤ	-11.3671
▁کھایا	-11.3672
▁پروٹسٹنٹزم	-11.3675
▁انتون	-11.3675
▁کریول	-11.3676
▁شم	-11.3676
▁ثالثی	-11.3677
▁15،000	-11.3686
چار	-11.3686
▁راجرز	-11.3691
▁ربی	-11.3697
▁تانگ	-11.3697
▁تکرار	-11.371
▁Ne	-11.3712
▁ملایا	-11.3716
▁Be	-11.3722
▁برطرفی	-11.373
▁ٹائل	-11.3756
▁ہومر	-11.3771
▁ماریو	-11.3804
▁پیکٹ	-11.3807
ونیس	-11.3819
1،000	-11.3837
▁کمپن	-11.3849
▁ذات	-11.3854
▁ٹرک	-11.3859
▁انگلی	-11.3859
▁ٹیبلٹ	-11.3861
▁XII	-11.3878
▁انکوائری	-11.3878
▁رضاکاروں	-11.3878
▁شلاچٹا	-11.3878
▁فرڈینینڈ	-11.3878
▁لہجے	-11.3878
▁مرحوم	-11.3878
▁مطالبات	-11.3878
▁پھیپھڑوں	-11.3878
▁چوڑائی	-11.3878
▁کاتالونیا	-11.3878
▁کارخانہ	-11.3878
▁کرسٹوفر	-11.3878
▁ہنگامہ	-11.3878
▁لٹویا	-11.3878
▁گارنیشن	-11.3878
▁ریچرڈ	-11.3878
▁فلاح	-11.3878
▁گالیشین	-11.3878
▁رومانیہ	-11.3878
▁ڈینیئل	-11.3878
▁مرجان	-11.3878
▁ٹوالو	-11.3878
▁افیون	-11.3878
▁پیشکش	-11.3879
▁صوفیانہ	-11.3879
▁مائکروفون	-11.3879
▁منچوریا	-11.3879
▁منانے	-11.388
▁باندھ	-11.388
▁پیٹریاٹ	-11.3881
▁ریوڑ	-11.3881
▁عزم	-11.3882
ish	-11.3884
Zn	-11.3887
▁ہلکا	-11.3892
▁السیس	-11.3893
▁1835	-11.3894
▁1878	-11.3903
▁مرغیوں	-11.3903
▁1825	-11.3904
2010	-11.3908
▁کاغذات	-11.3911
بورن	-11.3915
▁سوئی	-11.3918
▁دیکھنا	-11.3927
▁شاپ	-11.3929
▁Sch	-11.3931
▁اشتہاری	-11.3935
▁کمرہ	-11.3937
▁140	-11.3969
▁ڈریم	-11.4002
امہ	-11.4024
▁مخلوق	-11.4096
=	-11.41
▁استعفے	-11.41
▁اوبلاست	-11.41
▁دستکاری	-11.41
▁سیرکیڈین	-11.41
▁طحالب	-11.41
▁مبذول	-11.41
▁مجوزہ	-11.41
▁محنت	-11.41
▁مذاق	-11.41
▁معتدل	-11.41
▁معذور	-11.41
▁مونٹیویڈیو	-11.41
▁نقشے	-11.41
▁نوشتہ	-11.41
▁گورنمنٹ	-11.41
▁ہولوکاسٹ	-11.41
▁1906	-11.41
▁اجرت	-11.41
▁زاویہ	-11.41
▁وایلیٹ	-11.41
▁نیچرل	-11.41
▁گزرگاہ	-11.41
▁سرورق	-11.41
▁بینڈوتھ	-11.41
▁شیطان	-11.41
▁پرائیویٹ	-11.4101
▁سرجری	-11.4101
▁ٹنگسٹن	-11.4101
▁جوائنٹ	-11.4101
▁مبارک	-11.4101
▁آریائی	-11.4101
▁کمپاس	-11.4101
▁دادی	-11.4102
▁تیمور	-11.4102
▁ٹوکری	-11.4104
▁ڈاکٹریٹ	-11.4104
▁وکٹورین	-11.4105
▁شکنی	-11.4105
▁ضمیر	-11.4106
▁چلتے	-11.4106
▁سیلٹک	-11.4107
▁مورگن	-11.4109
▁بازاری	-11.4113
▁1776	-11.4116
▁کندہ	-11.4116
▁گزارے	-11.4118
▁ڈویلپرز	-11.4124
▁3.0	-11.4124
▁235	-11.4131
ide	-11.4137
▁بابل	-11.4143
▁ویلیم	-11.4143
▁رہنا	-11.4146
▁کلسٹر	-11.4149
▁پلگ	-11.4154
▁اکی	-11.418
MS	-11.4189
▁لیمب	-11.4213
3.2	-11.4234
▁بودھی	-11.4244
▁روبی	-11.4261
▁مظاہر	-11.427
▁تولید	-11.4302
▁ٹیکنیک	-11.4319
π	-11.4328
▁ابراہیم	-11.4328
▁افراط	-11.4328
▁اولمپیا	-11.4328
▁تخمینوں	-11.4328
▁ذیابیطس	-11.4328
▁شہزادے	-11.4328
▁کنندگان	-11.4328
▁اسماعیل	-11.4328
▁بصیرت	-11.4328
▁فلائنگ	-11.4328
▁مہنگی	-11.4328
▁میتھیو	-11.4328
▁ہائبرڈ	-11.4328
▁جتنا	-11.4328
▁فارچون	-11.4328
▁تھنڈر	-11.4328
صفحہ	-11.4328
▁بہادر	-11.4328
▁دخل	-11.4328
▁یوٹاہ	-11.4328
▁آفتاب	-11.4328
▁ملحد	-11.4328
▁چھڑی	-11.4328
▁بائیکاٹ	-11.4328
▁منتظمین	-11.4329
▁شفٹ	-11.433
▁کشمیر	-11.4331
▁فارورڈ	-11.4331
▁بخارات	-11.4333
▁امینو	-11.4333
▁بوسنیا	-11.4334
▁گلے	-11.4335
▁500،000	-11.4339
▁ہارپر	-11.4339
▁ابھرتی	-11.434
qui	-11.4344
▁رخ	-11.4344
▁1838	-11.435
▁فاتحین	-11.435
▁1833	-11.4351
▁جنکشن	-11.4351
▁1.1	-11.4353
▁تولیدی	-11.4353
▁2500	-11.436
▁شاک	-11.4388
men	-11.4394
▁ایکویٹی	-11.4408
1.8	-11.4452
▁جہتی	-11.4513
▁بدعنوان	-11.4528
▁گلوب	-11.4532
▁بائیک	-11.4538
ion	-11.4545
▁شبہ	-11.4558
>	-11.456
à	-11.456
ō	-11.456
▁PAL	-11.456
▁افواہ	-11.456
▁اندھیرے	-11.456
▁بسمارک	-11.456
▁سپاہی	-11.456
▁شاگرد	-11.456
▁قالین	-11.456
▁لوازمات	-11.456
▁مترادف	-11.456
▁مسدود	-11.456
▁معاشرہ	-11.456
▁موسیٰ	-11.456
▁ولادیمیر	-11.456
▁خوفناک	-11.456
▁متناسب	-11.456
▁پلاٹینم	-11.456
▁1902	-11.456
▁نفیس	-11.456
▁مادوں	-11.456
▁رشوت	-11.4561
▁چالیس	-11.4561
▁پیتل	-11.4561
▁مزار	-11.4562
▁جنگجوؤں	-11.4562
▁کروشین	-11.4563
▁چودہ	-11.4564
▁ماہانہ	-11.4565
▁معدومیت	-11.4568
▁آنکھیں	-11.4568
▁نواز	-11.4571
▁نوعمری	-11.4576
▁1863	-11.4577
▁ریجنل	-11.4579
▁1846	-11.458
▁1892	-11.4583
▁الفا	-11.4585
▁1895	-11.4588
ther	-11.4593
▁گھرانے	-11.4594
▁پہنچتا	-11.4598
▁پام	-11.4599
▁الما	-11.4626
und	-11.4627
کبھی	-11.4634
پولیس	-11.4659
▁پونٹی	-11.4668
▁فرن	-11.4678
▁ونڈو	-11.4693
▁Ju	-11.4717
▁گود	-11.4735
▁انکوڈ	-11.4755
je	-11.4757
▁اکائی	-11.4765
è	-11.4798
ö	-11.4798
%	-11.4798
▁استحقاق	-11.4798
▁انتظار	-11.4798
▁برہمن	-11.4798
▁خرگوش	-11.4798
▁دروازہ	-11.4798
▁سنجیدہ	-11.4798
▁شنگھائی	-11.4798
▁عددی	-11.4798
▁قبیلہ	-11.4798
▁لاپتہ	-11.4798
▁محکموں	-11.4798
▁نظارہ	-11.4798
▁وائکنگ	-11.4798
▁پھوٹ	-11.4798
▁چانسلر	-11.4798
▁کمپوزیشن	-11.4798
▁کیٹلاگ	-11.4798
▁گاندھی	-11.4798
▁استنبول	-11.4798
▁تلافی	-11.4798
▁مصور	-11.4798
▁ہوچکے	-11.4798
▁1866	-11.4798
▁خیمہ	-11.4798
▁زیورات	-11.4798
▁سیڑھی	-11.4798
▁ڈرامے	-11.4798
▁ایڈوانس	-11.4798
▁نمٹا	-11.4798
▁وِگ	-11.4798
▁ڈگلس	-11.4798
▁ورجیل	-11.4798
▁ٹیریٹری	-11.4799
▁کررہی	-11.4799
▁یریوان	-11.4799
▁سنتھیس	-11.4799
▁شافٹ	-11.4799
▁شرط	-11.4799
▁ریفارمیشن	-11.48
▁خبردار	-11.48
▁کسٹمر	-11.4801
▁لوفتوافے	-11.4801
▁ہانگجو	-11.4804
▁جنریٹر	-11.4804
▁ہائپو	-11.4804
▁بوٹیوں	-11.4806
4.8	-11.4807
▁فارغ	-11.4808
▁MP	-11.4809
▁کہانیاں	-11.4809
▁اللہ	-11.4811
▁توہین	-11.4811
▁اسٹریمنگ	-11.4815
▁1896	-11.4817
▁خودکار	-11.4822
▁1.3	-11.4826
▁باتھ	-11.4859
ger	-11.487
نگھم	-11.487
▁میرٹ	-11.4871
فرانسیسی	-11.4897
▁وینیل	-11.4917
qu	-11.4965
▁چٹان	-11.5006
▁آنکھ	-11.5006
▁ڈاؤ	-11.5036
▁لچک	-11.5041
▁الجزائر	-11.5042
▁امیونولوجی	-11.5042
▁اپالاچین	-11.5042
▁بہبود	-11.5042
▁تاثیر	-11.5042
▁حقائق	-11.5042
▁قاہرہ	-11.5042
▁محتاط	-11.5042
▁مشغول	-11.5042
▁معقول	-11.5042
▁منقطع	-11.5042
▁میکنٹوش	-11.5042
▁نکولائی	-11.5042
▁وینزویلا	-11.5042
▁ڈپریشن	-11.5042
▁کولوراڈو	-11.5042
▁ایڈونچر	-11.5042
▁جھڑپ	-11.5042
▁سازگار	-11.5042
▁مجید	-11.5042
▁انجکشن	-11.5042
▁نازک	-11.5042
▁ویگاس	-11.5043
▁اسمارٹ	-11.5043
▁کردے	-11.5043
▁کیتھرین	-11.5044
▁ننگے	-11.5045
▁مسوری	-11.5048
▁لگائے	-11.5048
▁الدین	-11.5048
▁ڈوبنے	-11.5051
▁سمجھتی	-11.5052
▁1874	-11.5059
▁1821	-11.5059
▁1877	-11.506
▁12،000	-11.5062
▁1889	-11.5063
▁Da	-11.5067
▁بیٹھا	-11.507
▁50،000	-11.5072
▁ہاکین	-11.5077
ən	-11.5078
▁ناسا	-11.5083
▁فالٹ	-11.5095
▁شرم	-11.51
▁ڈب	-11.5125
ong	-11.5156
جنوبی	-11.5168
▁قربان	-11.5179
▁زخم	-11.5204
▁آگئی	-11.5267
وگرافی	-11.5282
▁جمناسٹ	-11.529
ɑ	-11.5292
&	-11.5292
▁افراتفری	-11.5292
▁باویریا	-11.5292
▁تبلیغ	-11.5292
▁تعمیل	-11.5292
▁جغرافیہ	-11.5292
▁ستارہ	-11.5292
▁مونٹریال	-11.5292
▁نائٹروجن	-11.5292
▁نمائندگان	-11.5292
▁خالق	-11.5292
▁فکسڈ	-11.5292
▁مصلوب	-11.5292
▁موزارٹ	-11.5292
▁لنکاسٹر	-11.5292
▁ہیملٹن	-11.5292
▁چیلسی	-11.5292
▁USB	-11.5292
▁تھیوڈور	-11.5292
▁رحم	-11.5293
▁زہریلا	-11.5293
▁گوریلا	-11.5294
▁پریکٹس	-11.5294
▁پومپی	-11.5294
▁بلوط	-11.5295
▁پارتھین	-11.5295
▁ٹرپل	-11.5295
▁کزن	-11.5298
▁تائید	-11.5302
▁کورٹیکس	-11.5303
▁رولینڈ	-11.5303
▁کیفے	-11.5303
▁گرلز	-11.5307
OM	-11.5307
▁چیخ	-11.5309
▁1851	-11.5312
▁1858	-11.5312
▁سولڈر	-11.5313
▁پرستار	-11.5314
▁1873	-11.5319
▁ڈراپ	-11.532
▁پوتے	-11.5323
▁شاٹ	-11.5382
▁فرانکو	-11.5436
▁براڈکاسٹر	-11.5442
6.4	-11.5502
▁سلا	-11.5511
▁لیکچر	-11.5533
▁فائن	-11.5542
▁انتہا	-11.5547
ɔ	-11.5549
ω	-11.5549
▁آبزرویٹری	-11.5549
▁ستاروں	-11.5549
▁سنجیدگی	-11.5549
▁شکایات	-11.5549
▁صحافت	-11.5549
▁صحیفوں	-11.5549
▁فونافوٹی	-11.5549
▁قربت	-11.5549
▁لوزیانا	-11.5549
▁مشاہدات	-11.5549
í	-11.5549
μ	-11.5549
▁ایڈنبرا	-11.5549
▁زیادتی	-11.5549
▁میٹھے	-11.5549
▁نثر	-11.5549
▁ٹوائلٹ	-11.5549
▁ڈیسریلی	-11.5549
▁حاکم	-11.5549
▁ٹرانسفارمر	-11.5549
▁1824	-11.5549
▁بتاتا	-11.5549
▁تیونس	-11.5549
▁انگلش	-11.5549
▁بھیڑیا	-11.5549
▁کمیونین	-11.5549
▁نقد	-11.5549
▁جوراسک	-11.5549
▁نیولیتھک	-11.5549
▁ڈونڈا	-11.5549
▁بلانک	-11.5551
▁کیمرے	-11.5551
▁ڈیزل	-11.5551
▁پکانے	-11.5552
▁نیورونز	-11.5553
▁فاسٹ	-11.5555
▁فولڈ	-11.5555
▁نارمنڈی	-11.5555
▁منائی	-11.5555
▁جوڑتے	-11.5556
▁چکن	-11.5557
▁فوسٹر	-11.5558
▁کھینچنے	-11.5559
▁پیغامات	-11.556
▁بولتی	-11.556
▁ہائٹس	-11.556
▁اعتراضات	-11.5561
▁1894	-11.5565
▁چلاتے	-11.5567
▁رویوں	-11.557
▁سٹرنگ	-11.5577
▁سلاٹ	-11.5673
3.8	-11.5695
ven	-11.5706
▁روزگار	-11.5786
8.1	-11.5793
ά	-11.5812
▁half	-11.5812
▁اراگون	-11.5812
▁اٹھارہویں	-11.5812
▁بدوش	-11.5812
▁عطا	-11.5812
▁لمحے	-11.5812
▁مجموعے	-11.5812
▁مرتفع	-11.5812
▁مستند	-11.5812
▁منتشر	-11.5812
▁میسوپوٹیمیا	-11.5812
▁میٹابولک	-11.5812
▁ورچوئل	-11.5812
▁وینچوان	-11.5812
▁چہرہ	-11.5812
▁ڈائیوسیس	-11.5812
▁ترامیم	-11.5812
▁صفحے	-11.5812
▁گالیسیا	-11.5812
▁ضمیمہ	-11.5812
▁امارات	-11.5812
▁املاک	-11.5812
▁قاتل	-11.5812
▁سلائیڈ	-11.5812
▁ایڈولف	-11.5812
▁پویلین	-11.5812
▁انسولین	-11.5812
▁پیٹرولیم	-11.5812
▁بکھر	-11.5812
▁سمرسیٹ	-11.5812
▁سٹرلنگ	-11.5813
▁0.2	-11.5814
▁مخطوطہ	-11.5814
▁ناراضگی	-11.5814
▁مشروبات	-11.5814
▁شفاف	-11.5817
▁مردانہ	-11.5819
▁گھڑیاں	-11.582
▁انڈوں	-11.582
▁ریچھ	-11.5821
▁سکہ	-11.5822
▁پرنسٹن	-11.5825
▁چڑھنے	-11.5827
▁300،000	-11.5828
▁گریگ	-11.5828
▁Vi	-11.5835
▁ٹرمپ	-11.5835
▁ماریہ	-11.5839
174	-11.5957
▁پہل	-11.5958
ment	-11.5959
سیپٹر	-11.6004
اکثر	-11.6025
▁اتھانیس	-11.6061
▁معدنی	-11.6078
تفسیر	-11.6082
▁افسانہ	-11.6082
▁بوڑھے	-11.6082
▁بینیڈکٹ	-11.6082
▁تبادلوں	-11.6082
▁تفریق	-11.6082
▁ریگولیشن	-11.6082
▁ساوتھمپٹن	-11.6082
▁شہزادوں	-11.6082
▁ضابطہ	-11.6082
▁طاعون	-11.6082
▁غدود	-11.6082
▁معاوضے	-11.6082
▁وائسرائے	-11.6082
▁کومکاسٹ	-11.6082
▁افسوس	-11.6082
▁سلنڈر	-11.6082
▁ٹربیون	-11.6082
▁آبادکاروں	-11.6082
▁بھیڑیوں	-11.6082
▁ملتوی	-11.6082
▁سیگمنٹ	-11.6082
▁سادگی	-11.6082
▁اوورلیپ	-11.6082
▁تہوں	-11.6082
▁آنتوں	-11.6082
▁گلبرٹ	-11.6082
▁پٹرولیم	-11.6083
▁Kill	-11.6084
▁شائر	-11.6084
▁چچا	-11.6085
▁آدھا	-11.6086
▁پیپسی	-11.6086
▁لتھوانیائی	-11.6086
▁بساو	-11.6088
▁میگنس	-11.6088
▁وارانہ	-11.609
▁گریگوریائی	-11.6091
▁فائیو	-11.6091
▁چکی	-11.6092
▁1926	-11.6092
▁خریدے	-11.6094
▁فلوٹ	-11.6097
▁عقلیت	-11.6098
2.6	-11.6157
▁سلپ	-11.62
▁ارون	-11.6217
▁کینال	-11.6226
کریٹک	-11.6244
▁سلم	-11.6246
▁اہلکار	-11.6325
پروشین	-11.6326
زیادہ	-11.6329
یونانی	-11.6334
▁اجتماع	-11.6334
▁ریفارم	-11.6356
q	-11.6358
▁رفت	-11.6359
δ	-11.636
▁Mockingbird	-11.636
▁آمریت	-11.636
▁اعدادوشمار	-11.636
▁انحراف	-11.636
▁خیرمقدم	-11.636
▁سمجھوتہ	-11.636
▁عجیب	-11.636
▁عمومی	-11.636
▁قطار	-11.636
▁لوکوموٹو	-11.636
▁میٹابولزم	-11.636
▁پختگی	-11.636
▁کاربوہائیڈریٹ	-11.636
▁کنڈیشنر	-11.636
▁گھلنشیل	-11.636
▁باطل	-11.636
▁بریگھم	-11.636
▁سیلولوز	-11.636
▁مینوئل	-11.636
▁جنازے	-11.636
▁منڈیوں	-11.636
▁کنکریٹ	-11.636
▁یونگلے	-11.636
▁تردید	-11.636
▁جینیفر	-11.636
▁موصل	-11.636
▁ہارلم	-11.636
▁رینگنے	-11.636
▁کیوبیک	-11.636
▁ضرب	-11.636
▁سکریپ	-11.636
▁تورات	-11.636
▁ٹوکیو	-11.6361
▁اکیلے	-11.6361
▁پاشا	-11.6361
▁خوشبو	-11.6363
▁سلووینیا	-11.6364
▁صدور	-11.6366
▁وٹنی	-11.6366
▁اگلا	-11.6368
▁پولٹری	-11.6368
▁اٹھاتے	-11.6369
▁اترنے	-11.6371
▁400،000	-11.6373
▁ڈھکے	-11.638
▁چیئر	-11.6409
▁لنگر	-11.6437
بڑے	-11.6614
▁کیپسیٹر	-11.6625
پرتگالی	-11.664
ū	-11.6646
▁برمنگھم	-11.6646
▁بلوغت	-11.6646
▁تخریب	-11.6646
▁جرنیلوں	-11.6646
▁جیومیٹری	-11.6646
▁سرٹیفکیٹ	-11.6646
▁سیموئیل	-11.6646
▁فینوٹائپ	-11.6646
▁مہاجرین	-11.6646
▁میگوئل	-11.6646
▁نائنٹینڈو	-11.6646
▁پاؤڈر	-11.6646
▁پریزنٹیشن	-11.6646
▁چاہئیں	-11.6646
▁چیکوسلوواکیہ	-11.6646
▁کاربونیٹ	-11.6646
▁کھنڈرات	-11.6646
▁ہڈالگو	-11.6646
▁یوکاریوٹ	-11.6646
▁موومنٹ	-11.6646
▁چراغ	-11.6646
▁خسرہ	-11.6646
▁قلیل	-11.6646
حشرات	-11.6646
▁فرشتہ	-11.6646
▁نیگرو	-11.6646
▁1644	-11.6646
▁پروفائل	-11.6646
▁فرانز	-11.6646
▁آگسٹس	-11.6646
▁لیمبرٹ	-11.6646
▁یانگزی	-11.6646
▁حویلی	-11.6646
▁لزبن	-11.6646
لوقا	-11.6646
▁پینتھر	-11.6647
▁گودام	-11.6647
▁استقبالیہ	-11.6647
▁ونسٹن	-11.6648
▁دبا	-11.6648
▁ٹسکن	-11.6649
▁یلسن	-11.665
▁درسی	-11.665
▁جلوس	-11.665
▁اسرار	-11.6651
▁سوشلزم	-11.6651
▁فلورنس	-11.6652
▁کردیں	-11.6653
▁روبن	-11.6657
▁مانیٹر	-11.6663
9.8	-11.6677
▁نینو	-11.6683
،000،000	-11.6726
▁et	-11.6837
▁پکچر	-11.6924
▁اسکواڈ	-11.6939
ṣ	-11.694
▁Athanasius	-11.694
▁اونٹاریو	-11.694
▁اپوسٹولک	-11.694
▁برینڈنبرگ	-11.694
▁بیوروکریسی	-11.694
▁جہالت	-11.694
▁دفعات	-11.694
▁دھڑوں	-11.694
▁راجپوت	-11.694
▁زہریلے	-11.694
▁غلبے	-11.694
▁فلسفوں	-11.694
▁قازقستان	-11.694
▁مجسموں	-11.694
▁ناگزیر	-11.694
▁پھیری	-11.694
▁کٹھمنڈو	-11.694
▁گڑھے	-11.694
▁یکجہتی	-11.694
▁آئیڈیلزم	-11.694
▁باورچی	-11.694
▁زنجیر	-11.694
▁فزیکل	-11.694
▁سدرن	-11.694
▁سیکورٹی	-11.694
▁سرمئی	-11.694
▁بیچوان	-11.694
▁اناٹومی	-11.694
▁کبوتر	-11.694
▁گڑیا	-11.694
▁یورینس	-11.694
▁ریٹائرمنٹ	-11.6941
▁لوپیز	-11.6942
،600	-11.6942
▁کینبرا	-11.6944
▁ڈارٹ	-11.6945
▁جگر	-11.6947
▁کھوئے	-11.6947
▁تاؤ	-11.6953
Com	-11.6956
▁اینجل	-11.6959
سنسکرت	-11.6962
ماؤتھ	-11.7158
▁ٹیکنو	-11.7211
▁جاسوس	-11.7218
▁آلودہ	-11.7243
▁اغوا	-11.7243
▁انسداد	-11.7243
▁ایمانوئل	-11.7243
▁تقدیر	-11.7243
▁دانشوروں	-11.7243
▁ذہانت	-11.7243
▁روابط	-11.7243
▁ستارے	-11.7243
▁سنسرشپ	-11.7243
▁سکریٹری	-11.7243
▁عظمت	-11.7243
▁مداحوں	-11.7243
▁مدنظر	-11.7243
▁معزز	-11.7243
▁نعرے	-11.7243
▁پالمرسٹن	-11.7243
▁پروجیکشن	-11.7243
▁پروفیشنل	-11.7243
▁ڈھانپ	-11.7243
▁کنزرویٹری	-11.7243
▁ہاؤنڈ	-11.7243
▁بارٹلمی	-11.7243
▁خیمے	-11.7243
▁چھاپہ	-11.7243
▁رئیل	-11.7243
▁گشت	-11.7243
▁دہرایا	-11.7243
▁روانگی	-11.7243
▁1843	-11.7243
▁لگاتار	-11.7243
▁آمیز	-11.7243
▁فوجیوارا	-11.7243
▁ارنسٹ	-11.7243
▁جامنی	-11.7243
▁رگڑ	-11.7243
▁پرندہ	-11.7244
▁زمانہ	-11.7244
▁ایڈمنڈ	-11.7245
▁الساس	-11.7245
▁نکسن	-11.7245
▁بکتر	-11.7246
▁فلیش	-11.7247
▁پرائس	-11.7247
▁آئرس	-11.7248
▁کیڑا	-11.7249
TF	-11.7249
▁فارمولا	-11.7252
(	-11.7296
عظیم	-11.7297
▁فرانک	-11.7381
▁انگریز	-11.7493
▁سیاح	-11.7508
▁MPEG	-11.7555
▁آبپاشی	-11.7555
▁انتقام	-11.7555
▁بجانے	-11.7555
▁بندوبست	-11.7555
▁تحائف	-11.7555
▁دہندہ	-11.7555
▁طلوع	-11.7555
▁عضو	-11.7555
▁مستثنیات	-11.7555
▁مشتق	-11.7555
▁معینہ	-11.7555
▁پروٹوٹائپ	-11.7555
▁پروپیگنڈا	-11.7555
▁پورٹسماؤتھ	-11.7555
▁چالکتا	-11.7555
▁کھوپڑی	-11.7555
▁ہاضمہ	-11.7555
▁اوسبورن	-11.7555
▁تھورنگین	-11.7555
▁سلسلوں	-11.7555
▁فلامنٹ	-11.7555
▁لیکسنگٹن	-11.7555
▁مائکروجنزم	-11.7555
▁محض	-11.7555
▁نیوکلیئس	-11.7555
▁چھاپے	-11.7555
▁چیروکی	-11.7555
▁آبنائے	-11.7555
▁رینڈرنگ	-11.7555
▁گندم	-11.7555
▁الائنس	-11.7555
▁سیئول	-11.7555
▁ہلاکتیں	-11.7555
▁سوئز	-11.7555
▁بوئنگ	-11.7555
▁پکاسو	-11.7555
▁بیڑا	-11.7555
▁کنگڈم	-11.7556
▁چوہوں	-11.7556
▁پارٹنرشپ	-11.7556
▁پیلیولیتھک	-11.7556
▁چادر	-11.7556
▁ایوینیو	-11.7556
▁ناریل	-11.7557
▁ہائیڈرولک	-11.7558
▁چمکدار	-11.7558
▁وحی	-11.7558
▁افرو	-11.7559
▁کیسینو	-11.756
▁دسواں	-11.756
▁جیانگسو	-11.756
▁براک	-11.7625
▁ریپبلک	-11.7754
2.8	-11.7763
حرفی	-11.7805
▁مرغی	-11.7841
▁مفاد	-11.7873
▁شفا	-11.7875
▁سوازی	-11.7877
ì	-11.7878
γ	-11.7878
ي	-11.7878
▁آزمائش	-11.7878
▁الحاق	-11.7878
▁تحفہ	-11.7878
▁تلچھٹ	-11.7878
▁تھراواڈا	-11.7878
▁خروشچوف	-11.7878
▁دمشق	-11.7878
▁عمدہ	-11.7878
▁فلوروسینٹ	-11.7878
▁متصادم	-11.7878
▁موگادیشو	-11.7878
▁ٹھہرایا	-11.7878
▁پراپرٹی	-11.7878
▁پینگوئن	-11.7878
▁چاہیے	-11.7878
▁کیٹالینا	-11.7878
▁برادران	-11.7878
▁ٹائیگرز	-11.7878
▁یوایسبی	-11.7878
▁لبرٹی	-11.7878
▁موٹائی	-11.7878
▁دواؤں	-11.7878
▁ریشے	-11.7878
▁مٹھی	-11.7878
▁دوگنی	-11.7878
▁ربڑ	-11.7878
▁جواریز	-11.7879
▁شرٹس	-11.7879
▁پاؤں	-11.7879
▁زیجیانگ	-11.7879
▁پاگل	-11.7879
▁عیش	-11.788
▁ٹرائلز	-11.7881
▁سیاروں	-11.7881
▁لنچ	-11.7881
▁یانکی	-11.7884
▁فونوگراف	-11.7893
▁پلینی	-11.7909
ہسپانوی	-11.7992
برطانوی	-11.7999
▁براڈکاسٹ	-11.8005
بھول	-11.8032
▁ثالث	-11.8186
▁محب	-11.8203
▁اقتباس	-11.8211
▁Princess	-11.8211
▁szlachta	-11.8211
▁آرکیٹیکٹس	-11.8211
▁اجاگر	-11.8211
▁اجراء	-11.8211
▁ازبکستان	-11.8211
▁بطور	-11.8211
▁جوناتھن	-11.8211
▁خدشہ	-11.8211
▁درپیش	-11.8211
▁سلوواکیہ	-11.8211
▁فاسفورس	-11.8211
▁فلینڈرز	-11.8211
▁مشروط	-11.8211
▁مطمئن	-11.8211
▁معاویہ	-11.8211
▁ٹھنڈے	-11.8211
▁کینٹربری	-11.8211
▁گھوڑسواری	-11.8211
а	-11.8211
▁راضی	-11.8211
▁سیکریٹری	-11.8211
▁برسلز	-11.8211
▁چامورو	-11.8211
▁کمرشل	-11.8211
▁1831	-11.8211
▁1844	-11.8211
▁سکاؤٹ	-11.8211
▁خلل	-11.8211
▁ملبے	-11.8211
▁CAR	-11.8211
▁فزیولوجی	-11.8211
▁کینسنگٹن	-11.8211
▁ہائیڈرائڈ	-11.8211
▁کررہا	-11.8211
▁ٹیوشن	-11.8212
▁زمرہ	-11.8212
▁عزت	-11.8213
▁0.7	-11.8214
▁ٹکرا	-11.8217
دھرما	-11.8218
,500	-11.8238
▁ٹارٹ	-11.8312
امریکہ	-11.8369
تمام	-11.837
▁اسٹڈی	-11.8538
▁Cubs	-11.8556
▁انڈپینڈنٹ	-11.8556
▁بدعات	-11.8556
▁بوہیمیا	-11.8556
▁تمغے	-11.8556
▁شریعت	-11.8556
▁غصے	-11.8556
▁فائدے	-11.8556
θ	-11.8556
η	-11.8913
ί	-11.9283
Ü	-11.9668
о	-11.9668
с	-11.9668
е	-12.0068
к	-12.0068
ό	-12.092
;	-12.1374
ú	-12.1374
ê	-12.185
É	-12.185
ة	-12.235
и	-12.2877
ἀ	-12.2877
′	-12.3432
ě	-12.3432
ś	-12.3432
ē	-12.402
۱	-12.402
ա	-12.402
р	-12.4645
$	-12.5109
Π	-12.5312
υ	-12.5312
~	-12.5312
â	-12.5312
χ	-12.5312
漢	-12.5312
ύ	-12.6026
в	-12.6026
š	-12.6796
σ	-12.6796
्	-12.6796
字	-12.6796
у	-12.6796
星	-12.7629
§	-12.7629
王	-12.7629
т	-12.7629
נ	-12.8538
י	-12.8538
َ	-12.8538
β	-12.8538
۵	-12.8538
ô	-12.8538
ו	-12.8538
я	-12.8538
Δ	-12.8538
ר	-12.9538
۹	-12.9538
ή	-12.9538
ξ	-12.9538
ø	-12.9538
л	-12.9538
國	-12.9538
ώ	-13.0649
ò	-13.0649
£	-13.0982
ь	-13.1899
أ	-13.1899
·	-13.1899
ã	-13.1899
ć	-13.1899
ş	-13.1899
ǎ	-13.1899
喜	-13.1899
大	-13.1899
書	-13.1899
ְ	-13.3328
ン	-13.3328
子	-13.3328
西	-13.3328
ħ	-13.3328
ð	-13.3328
ź	-13.3328
ה	-13.3328
支	-13.3328
φ	-13.3328
ת	-13.3328
陳	-13.3328
试	-13.4994
ध	-13.4994
リ	-13.4994
ु	-13.4994
Á	-13.4994
ł	-13.4994
ž	-13.4994
ק	-13.4994
म	-13.4994
?	-13.4994
õ	-13.4994
ù	-13.4994
ы	-13.4994
र	-13.4994
书	-13.4994
府	-13.4994
東	-13.4994
蕃	-13.4994
元	-13.4994
å	-13.4994
衛	-13.4994
ス	-13.4994
都	-13.4994
ִ	-13.6994
क	-13.6994
ï	-13.6994
ʻ	-13.6994
ʼ	-13.6994
ד	-13.6994
۴	-13.6994
ख	-13.6994
区	-13.6994
建	-13.6994
民	-13.6994
唐	-13.6994
白	-13.6994
方	-13.6994
发	-13.6995
开	-13.6995
מ	-13.9494
¥	-13.9494
ŋ	-13.9494
г	-13.9494
@	-13.9494
î	-13.9494
א	-13.9494
ك	-13.9494
۲	-13.9494
ー	-13.9494
军	-13.9494
剑	-13.9494
帥	-13.9494
法	-13.9494
田	-13.9494
藏	-13.9494
京	-13.9494
đ	-13.9494
한	-13.9494
代	-13.9494
û	-13.9494
后	-13.9495
Ν	-14.2828
Λ	-14.2828
ս	-14.2828
ा	-14.2828
プ	-14.2828
ý	-14.2828
þ	-14.2828
̀	-14.2828
Η	-14.2828
д	-14.2828
ի	-14.2828
۶	-14.2828
া	-14.2828
り	-14.2828
タ	-14.2828
ト	-14.2828
五	-14.2828
吉	-14.2828
士	-14.2828
寧	-14.2828
徒	-14.2828
朝	-14.2828
江	-14.2828
济	-14.2828
甫	-14.2828
督	-14.2828
经	-14.2828
趙	-14.2828
過	-14.2828
驗	-14.2828
验	-14.2828
장	-14.2828
話	-14.2828
话	-14.2828
入	-14.2828
น	-14.7827
ร	-14.7827
า	-14.7827
կ	-14.7827
ր	-14.7827
ส	-14.7827
ַ	-14.7828
त	-14.7828
ि	-14.7828
イ	-14.7828
レ	-14.7828
ロ	-14.7828
女	-14.7828
Ô	-14.7828
ـ	-14.7828
平	-14.7828
武	-14.7828
Γ	-14.7828
Ø	-14.7828
з	-14.7828
ъ	-14.7828
Լ	-14.7828
Պ	-14.7828
բ	-14.7828
ח	-14.7828
ۃ	-14.7828
۰	-14.7828
۸	-14.7828
ल	-14.7828
্	-14.7828
三	-14.7828
东	-14.7828
伯	-14.7828
候	-14.7828
光	-14.7828
包	-14.7828
双	-14.7828
口	-14.7828
对	-14.7828
師	-14.7828
後	-14.7828
忒	-14.7828
持	-14.7828
按	-14.7828
政	-14.7828
族	-14.7828
校	-14.7828
案	-14.7828
楊	-14.7828
浦	-14.7828
海	-14.7828
渣	-14.7828
特	-14.7828
知	-14.7828
腐	-14.7828
舍	-14.7828
親	-14.7828
讀	-14.7828
豆	-14.7828
越	-14.7828
針	-14.7828
雙	-14.7828
音	-14.7828
顯	-14.7828
교	-14.7828
도	-14.7828
古	-14.7828
业	-14.7828
产	-14.7828
新	-14.7828
高	-14.7828
Φ	-14.7828
复	-14.7828
恢	-14.7828
灾	-14.7828
重	-14.7828
隶	-15.7668
菩	-15.7669
红	-15.767
紅	-15.7671
番	-15.7672
基	-15.7673
吐	-15.7674
十	-15.7675
利	-15.7676
切	-15.7677
來	-15.7678
中	-15.7679
シ	-15.768
ら	-15.7681
ぶ	-15.7682
さ	-15.7683
√	-15.7684
ὸ	-15.7685
ụ	-15.7686
ố	-15.7687
۷	-15.7688
ۂ	-15.7689
ٍ	-15.769
ש	-15.7691
ל	-15.7692
ׂ	-15.7693
ָ	-15.7694
ֵ	-15.7695
П	-15.7696
К	-15.7697
ζ	-15.7698
̊	-15.7699
ơ	-15.77
Š	-15.7701
Ş	-15.7702
œ	-15.7703
ę	-15.7704
ė	-15.7705
Ē	-15.7706
ą	-15.7707
해	-15.7708
조	-15.7709
방	-15.771
기	-15.7711
韓	-15.7712
震	-15.7713
福	-15.7714
爭	-15.7715
渤	-15.7716
泥	-15.7717
汶	-15.7718
戰	-15.7719
川	-15.772
地	-15.7721
土	-15.7722
圖	-15.7723
南	-15.7724
ミ	-15.7725
フ	-15.7726
コ	-15.7727
キ	-15.7728
ァ	-15.7729
ῆ	-15.773
ष	-15.7731
ठ	-15.7732
ى	-15.7733
ּ	-15.7734
ж	-15.7735
Р	-15.7736
В	-15.7737
ψ	-15.7738
Æ	-15.7739
烏	-15.774
斯	-15.7741
戦	-15.7742
思	-15.7743
力	-15.7744
俄	-15.7745
争	-15.7746
丹	-15.7747
ṭ	-15.7748
Ṣ	-15.7749
ٔ	-15.775
צ	-15.7751
հ	-15.7752
̧	-15.7753
́	-15.7754
ļ	-15.7755
ğ	-15.7756
Õ	-15.7757
Î	-15.7758
术	-15.7759
技	-15.776
成	-15.7761
卫	-15.7762
⁄	-15.7763
द	-15.7764
إ	-15.7765
ն	-15.7766
յ	-15.7767
ш	-15.7768
Σ	-15.7769
Α	-15.777
ń	-15.7771
전	-15.7772
쟁	-15.7773
국	-15.7774
₹	-15.7775
й	-15.7776
Ś	-15.7777
Ā	-15.7778
±	-15.7779
}	-15.778
{	-15.7781
ë	-15.7782
Ö	-15.7783
铺	-15.7784
紫	-15.7785
水	-15.7786
库	-15.7787
坪	-15.7788
❤	-15.7789
•	-15.779
м	-15.7791
Ż	-15.7792
›	-15.7793
ْ	-15.7794
İ	-15.7795
航	-15.7796
统	-15.7797
系	-15.7798
斗	-15.7799
导	-15.78
北	-15.7801
Χ	-15.7802
Κ	-15.7803
̃	-15.7804
<	-15.7805
ḥ	-15.7806
ß	-15.7807
→	-15.7808
ῖ	-15.7809
۳	-15.781
ّ	-15.7811
^	-15.7812
€	-15.7813
н	-15.7814
ç	-15.7815
_	-15.7816
ṇ	-15.7817
ñ	-15.7818
ı	-15.7819
έ	-15.782
×	-15.7821
#	-15.7822
ه	-15.7823
τ	-15.7824
ً	-15.7825
[	-15.7826
ง	-15.7827
ย	-15.7827
ศ	-15.7827
ี	-15.7827
เ	-15.7827
อ	-15.7827
ิ	-15.7827
โ	-15.7827
А	-15.7827
Х	-15.7827
б	-15.7827
ч	-15.7827
ژ	-15.7827
न	-15.7827
प	-15.7827
ピ	-15.7827
ュ	-15.7827
ラ	-15.7827
ワ	-15.7827
Ó	-15.7828
ɨ	-15.7828
ṛ	-15.7828
ク	-15.7828
チ	-15.7828
兵	-15.7828
将	-15.7828
松	-15.7828
¡	-15.7828
¢	-15.7828
ċ	-15.7828
ġ	-15.7828
Ł	-15.7828
ő	-15.7828
Β	-15.7828
Ε	-15.7828
Ψ	-15.7828
п	-15.7828
Հ	-15.7828
ց	-15.7828
ז	-15.7828
ם	-15.7828
ס	-15.7828
פ	-15.7828
ः	-15.7828
ग	-15.7828
জ	-15.7828
প	-15.7828
ম	-15.7828
য	-15.7828
র	-15.7828
ল	-15.7828
স	-15.7828
ಚ	-15.7828
ಮ	-15.7828
ಶ	-15.7828
ಿ	-15.7828
್	-15.7828
ỉ	-15.7828
ồ	-15.7828
ờ	-15.7828
ἐ	-15.7828
ὶ	-15.7828
の	-15.7828
は	-15.7828
セ	-15.7828
ゼ	-15.7828
ダ	-15.7828
ャ	-15.7828
ル	-15.7828
丁	-15.7828
主	-15.7828
义	-15.7828
事	-15.7828
仔	-15.7828
仕	-15.7828
他	-15.7828
会	-15.7828
伝	-15.7828
何	-15.7828
侍	-15.7828
像	-15.7828
凹	-15.7828
刘	-15.7828
前	-15.7828
剧	-15.7828
印	-15.7828
叠	-15.7828
和	-15.7828
块	-15.7828
坤	-15.7828
城	-15.7828
塊	-15.7828
変	-15.7828
夷	-15.7828
奴	-15.7828
妹	-15.7828
安	-15.7828
審	-15.7828
巡	-15.7828
帝	-15.7828
常	-15.7828
廷	-15.7828
張	-15.7828
征	-15.7828
总	-15.7828
拼	-15.7828
提	-15.7828
撫	-15.7828
教	-15.7828
文	-15.7828
時	-15.7828
替	-15.7828
本	-15.7828
朱	-15.7828
様	-15.7828
標	-15.7828
比	-15.7828
汉	-15.7828
泉	-15.7828
準	-15.7828
潮	-15.7828
片	-15.7828
理	-15.7828
用	-15.7828
異	-15.7828
皇	-15.7828
秀	-15.7828
緣	-15.7828
緩	-15.7828
绍	-15.7828
義	-15.7828
耶	-15.7828
臣	-15.7828
興	-15.7828
船	-15.7828
良	-15.7828
苗	-15.7828
草	-15.7828
萨	-15.7828
蒲	-15.7828
薩	-15.7828
虫	-15.7828
蝶	-15.7828
表	-15.7828
覆	-15.7828
見	-15.7828
説	-15.7828
議	-15.7828
豊	-15.7828
起	-15.7828
軍	-15.7828
逸	-15.7828
道	-15.7828
金	-15.7828
陵	-15.7828
青	-15.7828
館	-15.7828
體	-15.7828
독	-15.7828
로	-15.7828
리	-15.7828
수	-15.7828
스	-15.7828
예	-15.7828
회	-15.7828
ὐ	-15.7828
言	-15.7828
日	-15.7828
社	-15.7828
그	-15.7828
대	-15.7828
х	-15.7828
տ	-15.7828
パ	-15.7828
Є	-15.7828
ظ	-15.7828
